<pad>	0
<s>	0
</s>	0
<unk>	0
▁a	-0
▁t	-1
▁i	-2
▁w	-3
er	-4
▁th	-5
▁s	-6
en	-7
▁m	-8
▁c	-9
▁h	-10
in	-11
ou	-12
st	-13
▁b	-14
▁f	-15
om	-16
at	-17
re	-18
ing	-19
▁o	-20
▁to	-21
▁d	-22
ed	-23
ent	-24
▁g	-25
▁the	-26
ust	-27
▁an	-28
or	-29
▁l	-30
▁y	-31
▁my	-32
on	-33
as	-34
ll	-35
▁it	-36
▁ag	-37
▁n	-38
▁p	-39
omer	-40
▁cust	-41
▁customer	-42
▁agent	-43
▁ha	-44
an	-45
ar	-46
▁and	-47
it	-48
ve	-49
▁was	-50
▁you	-51
▁that	-52
▁be	-53
ay	-54
ot	-55
ri	-56
▁wh	-57
es	-58
▁in	-59
id	-60
et	-61
ow	-62
▁of	-63
▁e	-64
▁re	-65
▁for	-66
is	-67
▁so	-68
el	-69
gh	-70
▁on	-71
oo	-72
le	-73
▁is	-74
▁me	-75
ver	-76
ad	-77
ld	-78
▁we	-79
out	-80
▁j	-81
im	-82
ic	-83
▁do	-84
all	-85
ke	-86
▁u	-87
▁have	-88
al	-89
ut	-90
▁he	-91
▁st	-92
ch	-93
▁sh	-94
▁ne	-95
pp	-96
end	-97
ome	-98
▁am	-99
ith	-100
▁k	-101
ally	-102
ght	-103
▁su	-104
▁li	-105
am	-106
se	-107
▁did	-108
ere	-109
▁go	-110
ly	-111
▁with	-112
▁at	-113
op	-114
▁but	-115
ck	-116
▁ye	-117
th	-118
▁when	-119
ir	-120
▁get	-121
▁wor	-122
ould	-123
ood	-124
ul	-125
one	-126
sed	-127
▁ab	-128
▁not	-129
▁they	-130
▁fe	-131
▁can	-132
ill	-133
▁just	-134
very	-135
▁had	-136
▁out	-137
ast	-138
ro	-139
ce	-140
nd	-141
▁what	-142
riend	-143
▁really	-144
▁are	-145
▁she	-146
ry	-147
ion	-148
▁up	-149
▁tim	-150
▁ex	-151
ful	-152
ra	-153
ous	-154
▁al	-155
▁some	-156
▁good	-157
▁no	-158
▁lo	-159
▁about	-160
ter	-161
▁se	-162
▁got	-163
▁work	-164
▁all	-165
▁like	-166
▁as	-167
▁time	-168
▁ch	-169
▁feel	-170
ant	-171
rou	-172
▁friend	-173
▁this	-174
ct	-175
day	-176
▁her	-177
ate	-178
▁kn	-179
art	-180
▁mo	-181
▁day	-182
▁happ	-183
▁con	-184
..	-185
king	-186
un	-187
▁hop	-188
▁too	-189
▁been	-190
au	-191
▁going	-192
are	-193
ake	-194
ek	-195
▁pre	-196
▁de	-197
▁week	-198
way	-199
her	-200
oy	-201
▁hope	-202
▁oh	-203
▁fr	-204
▁ba	-205
ur	-206
il	-207
▁know	-208
ind	-209
▁car	-210
▁one	-211
▁how	-212
▁will	-213
▁year	-214
▁new	-215
▁very	-216
and	-217
ight	-218
▁af	-219
▁thin	-220
▁him	-221
▁your	-222
▁pl	-223
fe	-224
▁them	-225
▁don	-226
▁would	-227
▁le	-228
▁there	-229
▁well	-230
▁gr	-231
▁see	-232
ice	-233
ge	-234
ty	-235
ound	-236
▁now	-237
▁any	-238
ool	-239
▁from	-240
ie	-241
▁im	-242
▁te	-243
▁think	-244
reat	-245
▁dis	-246
▁lon	-247
ame	-248
ive	-249
▁last	-250
▁every	-251
▁gu	-252
▁were	-253
▁sa	-254
▁com	-255
▁want	-256
ore	-257
ation	-258
ely	-259
▁yea	-260
▁back	-261
ving	-262
▁sp	-263
us	-264
rd	-265
ble	-266
▁tr	-267
ess	-268
ers	-269
▁fa	-270
other	-271
▁r	-272
▁sc	-273
▁pe	-274
▁great	-275
▁jo	-276
▁didn	-277
mb	-278
ven	-279
res	-280
ared	-281
our	-282
▁thou	-283
omet	-284
ting	-285
▁sur	-286
▁oth	-287
▁than	-288
▁bad	-289
▁mad	-290
▁went	-291
▁somet	-292
ied	-293
▁thing	-294
▁sure	-295
▁exc	-296
▁could	-297
▁lot	-298
▁happy	-299
▁ri	-300
▁job	-301
ited	-302
▁old	-303
pri	-304
hing	-305
▁bet	-306
ard	-307
▁mu	-308
▁kid	-309
ak	-310
▁other	-311
▁dog	-312
ways	-313
▁v	-314
▁always	-315
▁yes	-316
▁over	-317
▁bec	-318
▁surpri	-319
▁sch	-320
▁off	-321
▁loo	-322
▁peop	-323
▁much	-324
▁people	-325
▁co	-326
▁wa	-327
▁or	-328
▁hard	-329
▁home	-330
▁his	-331
▁yeah	-332
ated	-333
▁today	-334
ause	-335
ip	-336
▁aw	-337
ster	-338
▁if	-339
▁nice	-340
ating	-341
▁sad	-342
ep	-343
▁man	-344
▁school	-345
▁un	-346
▁cl	-347
ain	-348
elt	-349
▁never	-350
▁wait	-351
▁felt	-352
ily	-353
▁excited	-354
▁int	-355
ig	-356
▁fir	-357
ick	-358
▁because	-359
▁has	-360
thing	-361
▁first	-362
elf	-363
▁ter	-364
ort	-365
▁happen	-366
os	-367
▁app	-368
ved	-369
▁terri	-370
ious	-371
▁surprised	-372
ies	-373
▁love	-374
▁make	-375
▁fin	-376
▁friends	-377
▁someone	-378
▁who	-379
▁years	-380
▁start	-381
▁en	-382
▁imp	-383
▁by	-384
▁after	-385
irl	-386
qu	-387
itt	-388
ident	-389
ish	-390
▁br	-391
▁night	-392
own	-393
assed	-394
ouse	-395
▁girl	-396
▁fam	-397
self	-398
atch	-399
▁even	-400
ady	-401
▁stu	-402
um	-403
▁long	-404
ite	-405
▁pret	-406
ked	-407
igh	-408
▁more	-409
pe	-410
▁family	-411
int	-412
▁need	-413
▁sound	-414
▁try	-415
roud	-416
▁proud	-417
▁right	-418
▁house	-419
▁pretty	-420
▁ro	-421
▁made	-422
▁hel	-423
▁should	-424
▁life	-425
ff	-426
▁ann	-427
ass	-428
▁still	-429
▁pro	-430
▁fun	-431
▁way	-432
ittle	-433
▁rec	-434
▁tri	-435
▁little	-436
▁sor	-437
ft	-438
▁help	-439
ppo	-440
▁sorry	-441
▁kids	-442
▁thank	-443
ile	-444
▁hear	-445
▁cont	-446
▁won	-447
ol	-448
gry	-449
ine	-450
▁part	-451
▁par	-452
▁into	-453
▁ke	-454
▁mon	-455
xt	-456
▁conf	-457
ning	-458
▁away	-459
▁best	-460
▁take	-461
▁prep	-462
ach	-463
▁things	-464
▁something	-465
▁why	-466
▁though	-467
▁its	-468
▁annoy	-469
per	-470
▁fu	-471
aught	-472
▁kind	-473
▁angry	-474
▁wow	-475
▁trust	-476
▁getting	-477
ide	-478
raid	-479
▁afraid	-480
uck	-481
▁comp	-482
▁next	-483
friend	-484
▁qu	-485
▁better	-486
▁1	-487
ose	-488
eal	-489
▁our	-490
▁does	-491
▁sounds	-492
▁di	-493
oney	-494
▁play	-495
ci	-496
▁then	-497
fied	-498
de	-499
▁found	-500
ag	-501
me	-502
▁money	-503
▁mis	-504
▁saw	-505
...	-506
ment	-507
▁down	-508
▁bu	-509
▁us	-510
▁weekend	-511
▁prepared	-512
▁che	-513
round	-514
▁feeling	-515
ently	-516
▁emb	-517
ens	-518
▁embar	-519
ild	-520
▁watch	-521
ressed	-522
▁mom	-523
row	-524
▁confident	-525
aking	-526
▁anx	-527
nt	-528
▁son	-529
▁month	-530
▁lonely	-531
▁being	-532
fore	-533
▁ac	-534
▁before	-535
akes	-536
ac	-537
▁embarr	-538
▁find	-539
rough	-540
▁must	-541
▁days	-542
▁may	-543
▁big	-544
▁pr	-545
▁jeal	-546
▁jealous	-547
▁disa	-548
gust	-549
iz	-550
▁2	-551
▁myself	-552
vie	-553
▁while	-554
ree	-555
▁disgust	-556
▁annoyed	-557
▁disappo	-558
amed	-559
be	-560
wn	-561
▁anxious	-562
ents	-563
▁guil	-564
gic	-565
ace	-566
ave	-567
tic	-568
sterday	-569
▁yesterday	-570
ateful	-571
▁took	-572
▁grateful	-573
inted	-574
stal	-575
▁terrified	-576
lie	-577
urn	-578
▁guilty	-579
pt	-580
▁recently	-581
▁end	-582
rious	-583
ue	-584
▁able	-585
▁nostal	-586
▁brother	-587
esome	-588
▁scared	-589
▁around	-590
▁sent	-591
▁their	-592
▁ready	-593
▁wi	-594
▁impressed	-595
▁disappointed	-596
▁hopeful	-597
▁daught	-598
▁awesome	-599
▁furious	-600
▁nostalgic	-601
▁dri	-602
▁thought	-603
▁cou	-604
▁miss	-605
▁ner	-606
▁appre	-607
▁embarrassed	-608
▁antic	-609
▁anticip	-610
▁keep	-611
mber	-612
▁looking	-613
▁pay	-614
▁only	-615
▁ash	-616
▁through	-617
ually	-618
nder	-619
▁tal	-620
ure	-621
▁dev	-622
▁disgusted	-623
▁wife	-624
▁joy	-625
▁ashamed	-626
▁care	-627
▁child	-628
▁sw	-629
▁anticipating	-630
ensive	-631
▁lol	-632
▁few	-633
▁wanted	-634
▁sometim	-635
▁where	-636
ity	-637
▁wal	-638
ary	-639
▁everything	-640
▁sho	-641
▁belie	-642
▁gl	-643
ha	-644
▁ra	-645
▁bl	-646
▁content	-647
▁devast	-648
ward	-649
▁put	-650
▁under	-651
ire	-652
▁let	-653
▁ago	-654
▁thats	-655
▁bir	-656
▁sin	-657
ried	-658
ental	-659
pect	-660
▁fl	-661
▁having	-662
ough	-663
ull	-664
▁ok	-665
▁devastated	-666
▁daughter	-667
▁doing	-668
▁anything	-669
ew	-670
▁maybe	-671
▁sometimes	-672
▁joyful	-673
▁left	-674
▁luck	-675
▁came	-676
▁wish	-677
▁ph	-678
ist	-679
ost	-680
▁girlfriend	-681
▁believe	-682
▁tra	-683
bor	-684
▁plan	-685
▁sentim	-686
orrow	-687
▁since	-688
ance	-689
▁call	-690
▁used	-691
▁sentimental	-692
cked	-693
dy	-694
▁again	-695
▁guy	-696
▁trusting	-697
▁happened	-698
lle	-699
▁food	-700
▁act	-701
vor	-702
▁makes	-703
▁birth	-704
▁test	-705
▁pa	-706
az	-707
▁lost	-708
▁caring	-709
▁faith	-710
▁rel	-711
▁say	-712
▁show	-713
▁come	-714
▁hus	-715
▁live	-716
!!	-717
▁cat	-718
cer	-719
▁nerv	-720
▁neigh	-721
▁hate	-722
ng	-723
▁many	-724
▁nervous	-725
▁colle	-726
▁ad	-727
band	-728
▁tw	-729
get	-730
▁3	-731
▁birthday	-732
▁husband	-733
age	-734
able	-735
▁told	-736
▁pers	-737
ations	-738
pped	-739
▁such	-740
▁glad	-741
▁neighbor	-742
▁tom	-743
▁tell	-744
▁once	-745
▁those	-746
▁bro	-747
pl	-748
▁reme	-749
▁inter	-750
▁grad	-751
▁sm	-752
▁ups	-753
▁spe	-754
by	-755
▁same	-756
▁appreh	-757
▁person	-758
▁alone	-759
ork	-760
▁bou	-761
▁high	-762
▁remember	-763
▁apprehensive	-764
▁trying	-765
▁dr	-766
▁done	-767
ress	-768
▁favor	-769
▁seem	-770
▁look	-771
ong	-772
ash	-773
▁res	-774
▁cool	-775
▁ever	-776
▁upset	-777
mer	-778
▁tomorrow	-779
▁acc	-780
▁bought	-781
▁amaz	-782
ult	-783
▁cle	-784
ner	-785
ss	-786
▁si	-787
▁college	-788
▁wasn	-789
▁dec	-790
▁place	-791
▁vac	-792
▁game	-793
▁mar	-794
▁turn	-795
▁coming	-796
▁parents	-797
orm	-798
▁super	-799
▁another	-800
▁said	-801
▁trip	-802
▁stay	-803
▁bit	-804
▁soon	-805
▁favorite	-806
▁faithful	-807
00	-808
▁here	-809
▁grand	-810
ence	-811
▁boy	-812
▁finally	-813
▁class	-814
▁real	-815
ater	-816
▁gi	-817
▁everyone	-818
▁party	-819
▁fo	-820
▁ar	-821
▁most	-822
ise	-823
▁sit	-824
ab	-825
▁prom	-826
▁guess	-827
▁win	-828
ath	-829
ather	-830
▁underst	-831
ase	-832
ang	-833
full	-834
most	-835
▁cra	-836
▁passed	-837
▁two	-838
ook	-839
▁knew	-840
ason	-841
fully	-842
oth	-843
▁almost	-844
▁working	-845
▁started	-846
view	-847
▁times	-848
▁expect	-849
ered	-850
▁amazing	-851
▁understand	-852
▁gro	-853
gr	-854
▁give	-855
▁dad	-856
▁buy	-857
▁scary	-858
▁terrible	-859
▁vacation	-860
▁eat	-861
so	-862
▁baby	-863
side	-864
▁hur	-865
▁own	-866
▁ear	-867
▁po	-868
▁rest	-869
oss	-870
▁clean	-871
▁la	-872
▁store	-873
▁wr	-874
▁sister	-875
ump	-876
▁haha	-877
joy	-878
▁bus	-879
▁months	-880
▁bre	-881
▁enjoy	-882
▁least	-883
▁meet	-884
▁hit	-885
ately	-886
▁taking	-887
▁mor	-888
▁mean	-889
▁interview	-890
▁weeks	-891
▁forward	-892
▁str	-893
leep	-894
▁also	-895
▁room	-896
cks	-897
▁swe	-898
▁haven	-899
▁gave	-900
est	-901
▁morning	-902
▁young	-903
▁sto	-904
▁cr	-905
▁hor	-906
ont	-907
ned	-908
▁nothing	-909
▁5	-910
ple	-911
▁tried	-912
▁without	-913
der	-914
mor	-915
gether	-916
▁quite	-917
▁ord	-918
▁waiting	-919
▁couldn	-920
▁bo	-921
▁vis	-922
unch	-923
▁together	-924
act	-925
ich	-926
ect	-927
ten	-928
▁diff	-929
▁sick	-930
▁per	-931
▁actually	-932
cial	-933
▁run	-934
▁died	-935
▁might	-936
til	-937
▁fi	-938
▁memor	-939
otion	-940
hip	-941
▁att	-942
▁enough	-943
ball	-944
▁stuff	-945
▁until	-946
▁broke	-947
▁thanks	-948
▁sum	-949
▁moved	-950
iting	-951
ug	-952
▁okay	-953
ail	-954
▁pu	-955
▁movie	-956
▁4	-957
▁yet	-958
▁ide	-959
ap	-960
▁el	-961
▁def	-962
▁past	-963
▁leave	-964
ange	-965
▁heard	-966
▁cow	-967
▁summer	-968
▁cut	-969
▁hour	-970
▁late	-971
▁ate	-972
▁sleep	-973
▁exam	-974
▁move	-975
▁idea	-976
▁sl	-977
▁thinking	-978
grat	-979
▁sk	-980
ord	-981
vers	-982
▁em	-983
▁forg	-984
hood	-985
ition	-986
▁congrat	-987
▁worried	-988
▁whole	-989
▁hopefully	-990
▁compan	-991
▁front	-992
▁doesn	-993
ond	-994
▁compl	-995
▁wonder	-996
▁lear	-997
▁talk	-998
na	-999
▁stud	-1000
wh	-1001
▁ser	-1002
ax	-1003
▁world	-1004
▁sec	-1005
ier	-1006
▁watching	-1007
▁close	-1008
fort	-1009
▁which	-1010
▁din	-1011
▁date	-1012
▁defin	-1013
▁these	-1014
▁ended	-1015
ably	-1016
ctor	-1017
▁dont	-1018
▁accident	-1019
▁ton	-1020
▁else	-1021
▁gradu	-1022
▁grandm	-1023
▁pet	-1024
▁door	-1025
ream	-1026
▁mine	-1027
▁walking	-1028
▁couple	-1029
▁forgot	-1030
▁cowork	-1031
▁worked	-1032
red	-1033
▁sweet	-1034
▁wrong	-1035
▁anyone	-1036
▁hurt	-1037
ack	-1038
▁cant	-1039
▁definit	-1040
▁op	-1041
▁far	-1042
▁heal	-1043
▁boyfriend	-1044
▁tick	-1045
▁drive	-1046
▁phone	-1047
▁company	-1048
▁deal	-1049
▁prob	-1050
▁hu	-1051
▁pass	-1052
▁definitely	-1053
▁eas	-1054
▁true	-1055
ict	-1056
▁memories	-1057
▁des	-1058
▁alre	-1059
▁mother	-1060
▁already	-1061
zy	-1062
▁ap	-1063
ided	-1064
▁probably	-1065
▁rem	-1066
▁ret	-1067
▁playing	-1068
▁inst	-1069
▁horri	-1070
▁foot	-1071
▁seen	-1072
▁needed	-1073
▁dinner	-1074
▁shocked	-1075
ired	-1076
▁making	-1077
▁team	-1078
em	-1079
▁ho	-1080
ink	-1081
▁break	-1082
▁asked	-1083
▁use	-1084
izz	-1085
ger	-1086
ience	-1087
▁ext	-1088
▁driving	-1089
▁outside	-1090
▁pizz	-1091
▁seems	-1092
pping	-1093
▁spend	-1094
▁suppo	-1095
▁head	-1096
gn	-1097
▁pos	-1098
▁didnt	-1099
▁promotion	-1100
ph	-1101
▁import	-1102
▁ticket	-1103
▁hand	-1104
▁town	-1105
▁pres	-1106
▁lucky	-1107
▁ent	-1108
▁crazy	-1109
▁important	-1110
▁realiz	-1111
▁decided	-1112
▁-	-1113
▁pizza	-1114
▁boss	-1115
ead	-1116
rew	-1117
▁ran	-1118
▁seeing	-1119
cially	-1120
▁visit	-1121
▁doctor	-1122
▁exper	-1123
▁both	-1124
ions	-1125
▁happens	-1126
▁supp	-1127
▁sn	-1128
▁ins	-1129
▁min	-1130
▁open	-1131
▁gift	-1132
▁study	-1133
rant	-1134
ject	-1135
uring	-1136
ding	-1137
ling	-1138
▁pick	-1139
itch	-1140
▁es	-1141
rought	-1142
▁talking	-1143
ars	-1144
▁health	-1145
▁"	-1146
▁tot	-1147
up	-1148
als	-1149
▁10	-1150
▁gone	-1151
▁sucks	-1152
▁usually	-1153
▁brought	-1154
▁called	-1155
▁dogs	-1156
▁reason	-1157
▁fast	-1158
▁situ	-1159
ves	-1160
▁gets	-1161
▁restau	-1162
▁restaurant	-1163
▁yourself	-1164
▁met	-1165
▁each	-1166
▁bring	-1167
▁horrible	-1168
▁change	-1169
ever	-1170
▁road	-1171
blem	-1172
▁fri	-1173
▁ev	-1174
ush	-1175
▁loved	-1176
▁problem	-1177
▁exciting	-1178
▁ah	-1179
▁fix	-1180
▁stop	-1181
▁exp	-1182
▁during	-1183
ren	-1184
▁heart	-1185
▁hours	-1186
▁gam	-1187
▁married	-1188
▁agree	-1189
▁bed	-1190
illed	-1191
artment	-1192
▁cam	-1193
▁pri	-1194
▁ru	-1195
▁fine	-1196
▁gon	-1197
more	-1198
▁tough	-1199
sing	-1200
▁looked	-1201
▁differ	-1202
▁relax	-1203
▁thankful	-1204
ans	-1205
▁free	-1206
▁anymore	-1207
▁tonight	-1208
▁gonna	-1209
ys	-1210
▁count	-1211
▁fell	-1212
▁pain	-1213
▁eating	-1214
ank	-1215
les	-1216
ia	-1217
ces	-1218
bo	-1219
▁grow	-1220
unt	-1221
▁sat	-1222
ppy	-1223
▁inv	-1224
▁guys	-1225
▁surprise	-1226
▁card	-1227
▁espe	-1228
▁football	-1229
▁check	-1230
▁wouldn	-1231
▁ask	-1232
▁teach	-1233
dd	-1234
▁worst	-1235
▁hoping	-1236
ert	-1237
erest	-1238
▁especially	-1239
ird	-1240
▁imag	-1241
▁beach	-1242
▁inc	-1243
▁del	-1244
oop	-1245
▁full	-1246
▁turned	-1247
iness	-1248
▁news	-1249
▁pol	-1250
ither	-1251
▁paid	-1252
▁gross	-1253
▁meeting	-1254
lled	-1255
ract	-1256
where	-1257
▁awful	-1258
ons	-1259
ined	-1260
▁lately	-1261
▁park	-1262
▁starting	-1263
▁cour	-1264
▁water	-1265
▁situation	-1266
room	-1267
▁rep	-1268
▁interest	-1269
ark	-1270
▁huge	-1271
▁supposed	-1272
▁wonderful	-1273
cept	-1274
▁fall	-1275
orn	-1276
▁manag	-1277
▁minut	-1278
▁expecting	-1279
▁experience	-1280
▁season	-1281
▁bill	-1282
▁relations	-1283
▁city	-1284
▁face	-1285
work	-1286
ining	-1287
▁children	-1288
▁relationship	-1289
ible	-1290
▁20	-1291
fect	-1292
▁later	-1293
▁complet	-1294
▁coworker	-1295
og	-1296
ased	-1297
▁stole	-1298
▁mind	-1299
▁concer	-1300
▁ir	-1301
▁cho	-1302
▁kept	-1303
▁totally	-1304
ount	-1305
▁childhood	-1306
iet	-1307
▁congratul	-1308
▁hot	-1309
▁isn	-1310
▁finish	-1311
▁anim	-1312
▁char	-1313
▁moving	-1314
▁watched	-1315
▁living	-1316
line	-1317
vious	-1318
cy	-1319
▁near	-1320
▁ve	-1321
ness	-1322
▁exact	-1323
▁dro	-1324
▁walk	-1325
▁final	-1326
ken	-1327
▁pict	-1328
▁ordered	-1329
▁different	-1330
ret	-1331
▁imagine	-1332
▁cake	-1333
▁fail	-1334
oke	-1335
▁side	-1336
▁grandmother	-1337
air	-1338
sh	-1339
▁tv	-1340
▁med	-1341
▁either	-1342
ny	-1343
▁beh	-1344
▁mus	-1345
atter	-1346
▁bar	-1347
▁pregn	-1348
▁poop	-1349
llow	-1350
▁pull	-1351
▁caught	-1352
▁read	-1353
▁games	-1354
▁feels	-1355
▁appreci	-1356
▁annoying	-1357
▁congratulations	-1358
cess	-1359
▁dep	-1360
▁lunch	-1361
▁studied	-1362
rist	-1363
vies	-1364
▁apartment	-1365
▁neighbors	-1366
vel	-1367
▁appl	-1368
ures	-1369
▁goes	-1370
fortun	-1371
▁remind	-1372
▁result	-1373
▁aff	-1374
▁vide	-1375
ane	-1376
▁mess	-1377
▁early	-1378
▁instead	-1379
▁roll	-1380
▁sing	-1381
▁movies	-1382
▁often	-1383
▁spent	-1384
▁father	-1385
▁unfortun	-1386
▁less	-1387
▁grocer	-1388
ense	-1389
ower	-1390
br	-1391
▁special	-1392
▁fore	-1393
▁worth	-1394
unk	-1395
▁list	-1396
▁storm	-1397
iv	-1398
ider	-1399
ross	-1400
▁mid	-1401
ying	-1402
▁law	-1403
▁walked	-1404
▁present	-1405
▁cur	-1406
▁set	-1407
▁puppy	-1408
onest	-1409
▁order	-1410
▁cook	-1411
▁rece	-1412
ey	-1413
▁god	-1414
▁weird	-1415
▁exactly	-1416
▁ste	-1417
▁small	-1418
▁honest	-1419
reet	-1420
▁hang	-1421
▁younger	-1422
▁word	-1423
▁light	-1424
▁return	-1425
▁ty	-1426
▁fight	-1427
▁fut	-1428
itive	-1429
▁music	-1430
▁worry	-1431
ants	-1432
form	-1433
▁phot	-1434
▁future	-1435
▁project	-1436
not	-1437
▁behind	-1438
▁lau	-1439
▁easy	-1440
tery	-1441
med	-1442
▁ple	-1443
▁yard	-1444
▁afford	-1445
ustr	-1446
▁book	-1447
▁comm	-1448
▁wind	-1449
▁christ	-1450
▁shopping	-1451
aring	-1452
▁stress	-1453
▁weight	-1454
▁raise	-1455
urch	-1456
▁business	-1457
▁cert	-1458
▁threw	-1459
▁trou	-1460
bb	-1461
▁comes	-1462
▁extra	-1463
lf	-1464
▁fly	-1465
▁truck	-1466
▁online	-1467
co	-1468
▁adv	-1469
▁plans	-1470
▁stand	-1471
▁lottery	-1472
▁ref	-1473
▁lose	-1474
▁point	-1475
▁throw	-1476
▁entire	-1477
gg	-1478
▁sme	-1479
▁grade	-1480
▁quick	-1481
▁wed	-1482
ative	-1483
▁bunch	-1484
led	-1485
▁seme	-1486
▁three	-1487
ced	-1488
mas	-1489
▁loc	-1490
▁busy	-1491
▁partner	-1492
ates	-1493
▁iss	-1494
▁reg	-1495
▁dist	-1496
▁moment	-1497
▁second	-1498
▁street	-1499
▁country	-1500
▁semester	-1501
▁pregnant	-1502
▁helped	-1503
cking	-1504
▁dream	-1505
▁state	-1506
▁worse	-1507
▁running	-1508
▁coo	-1509
phew	-1510
▁wom	-1511
ivers	-1512
▁nephew	-1513
▁math	-1514
▁diffic	-1515
we	-1516
ope	-1517
▁christmas	-1518
kes	-1519
▁camp	-1520
▁doll	-1521
▁hair	-1522
▁gotten	-1523
▁cannot	-1524
▁couldnt	-1525
ffe	-1526
umped	-1527
▁frustr	-1528
ign	-1529
ical	-1530
▁wall	-1531
ital	-1532
ym	-1533
ues	-1534
▁fre	-1535
▁difficult	-1536
ib	-1537
if	-1538
aut	-1539
ention	-1540
▁paying	-1541
▁box	-1542
▁hum	-1543
▁war	-1544
▁eng	-1545
ian	-1546
ming	-1547
▁bath	-1548
ugg	-1549
▁dang	-1550
▁police	-1551
ffic	-1552
▁mist	-1553
▁drink	-1554
▁pants	-1555
ics	-1556
▁lou	-1557
▁base	-1558
▁course	-1559
▁concert	-1560
▁expensive	-1561
▁minutes	-1562
wards	-1563
▁cons	-1564
▁poss	-1565
▁self	-1566
▁applied	-1567
▁trouble	-1568
▁une	-1569
▁coffe	-1570
▁deser	-1571
▁studying	-1572
▁older	-1573
▁inside	-1574
▁mail	-1575
▁laugh	-1576
▁played	-1577
▁serious	-1578
ploy	-1579
▁cous	-1580
▁cute	-1581
▁half	-1582
▁video	-1583
▁works	-1584
▁positive	-1585
ors	-1586
iece	-1587
▁dent	-1588
▁ride	-1589
▁cousin	-1590
▁luckily	-1591
gest	-1592
▁treat	-1593
▁coffee	-1594
▁results	-1595
less	-1596
▁event	-1597
▁gen	-1598
▁hos	-1599
▁land	-1600
rit	-1601
▁bum	-1602
▁cal	-1603
lling	-1604
▁chang	-1605
▁funny	-1606
▁forever	-1607
▁accidentally	-1608
ory	-1609
▁cheated	-1610
▁planning	-1611
▁realized	-1612
▁hosp	-1613
▁ones	-1614
▁rain	-1615
▁catch	-1616
▁girls	-1617
▁takes	-1618
▁window	-1619
▁completely	-1620
▁hold	-1621
▁others	-1622
irt	-1623
▁mil	-1624
▁planned	-1625
▁graduated	-1626
dle	-1627
ised	-1628
▁keeps	-1629
▁support	-1630
io	-1631
▁sim	-1632
▁dead	-1633
▁smart	-1634
▁envious	-1635
▁sitting	-1636
▁fan	-1637
▁born	-1638
▁finan	-1639
▁cry	-1640
▁area	-1641
▁wedding	-1642
▁lots	-1643
cel	-1644
ney	-1645
▁looks	-1646
▁certain	-1647
right	-1648
▁dark	-1649
▁name	-1650
bs	-1651
cle	-1652
▁beaut	-1653
▁pract	-1654
▁accept	-1655
▁traffic	-1656
▁congrats	-1657
▁bra	-1658
ction	-1659
▁manager	-1660
ru	-1661
aken	-1662
▁safe	-1663
▁pictures	-1664
▁position	-1665
ime	-1666
▁fair	-1667
iced	-1668
▁chance	-1669
ived	-1670
body	-1671
▁aww	-1672
▁loud	-1673
▁fig	-1674
▁swim	-1675
▁cloth	-1676
ele	-1677
▁cost	-1678
▁single	-1679
▁ey	-1680
▁age	-1681
ud	-1682
▁abs	-1683
▁air	-1684
▁across	-1685
ouch	-1686
▁tur	-1687
▁resp	-1688
▁grocery	-1689
osed	-1690
aving	-1691
▁matter	-1692
▁bathroom	-1693
▁interesting	-1694
▁neighborhood	-1695
ric	-1696
▁learn	-1697
▁dra	-1698
▁prop	-1699
▁woke	-1700
▁step	-1701
▁dropped	-1702
!!!	-1703
ee	-1704
▁clos	-1705
▁middle	-1706
bt	-1707
ual	-1708
▁bur	-1709
ically	-1710
▁trash	-1711
▁weather	-1712
olut	-1713
▁comput	-1714
lier	-1715
pected	-1716
▁local	-1717
▁bas	-1718
urance	-1719
▁turns	-1720
▁type	-1721
▁office	-1722
▁earlier	-1723
▁tickets	-1724
▁everyday	-1725
aster	-1726
▁beauti	-1727
▁learned	-1728
▁ele	-1729
▁norm	-1730
▁clothes	-1731
ike	-1732
▁ass	-1733
▁red	-1734
▁lied	-1735
▁hospital	-1736
▁listen	-1737
gs	-1738
▁15	-1739
▁cred	-1740
▁short	-1741
▁leaving	-1742
ior	-1743
▁cancer	-1744
▁perfect	-1745
....	-1746
ular	-1747
▁top	-1748
▁beautiful	-1749
▁unfortunately	-1750
▁cru	-1751
▁curr	-1752
▁lady	-1753
▁finished	-1754
▁du	-1755
▁ma	-1756
▁pack	-1757
▁forget	-1758
▁starts	-1759
▁gym	-1760
▁case	-1761
com	-1762
▁hun	-1763
ient	-1764
▁rid	-1765
essed	-1766
▁absolut	-1767
▁cover	-1768
▁smash	-1769
ma	-1770
▁credit	-1771
▁roller	-1772
use	-1773
▁rough	-1774
▁computer	-1775
ones	-1776
▁ice	-1777
ities	-1778
▁band	-1779
▁unex	-1780
ishing	-1781
▁follow	-1782
▁impress	-1783
▁realize	-1784
▁insurance	-1785
ings	-1786
▁suc	-1787
▁wants	-1788
▁woman	-1789
▁missed	-1790
bl	-1791
▁z	-1792
▁diet	-1793
▁offered	-1794
▁quickly	-1795
▁bills	-1796
▁quiet	-1797
▁brand	-1798
▁liked	-1799
▁pooped	-1800
▁grandma	-1801
▁cats	-1802
▁taken	-1803
▁anyway	-1804
▁compet	-1805
▁unexpected	-1806
▁cor	-1807
▁friday	-1808
▁secret	-1809
▁due	-1810
▁rand	-1811
▁bud	-1812
▁meal	-1813
▁irrit	-1814
▁lived	-1815
▁knows	-1816
sel	-1817
arch	-1818
outh	-1819
roup	-1820
▁beat	-1821
▁poor	-1822
▁group	-1823
▁broken	-1824
▁random	-1825
▁saving	-1826
▁absolutely	-1827
▁ugh	-1828
mate	-1829
▁save	-1830
▁stuck	-1831
pid	-1832
olog	-1833
used	-1834
??	-1835
▁line	-1836
▁accom	-1837
▁build	-1838
▁seemed	-1839
▁parking	-1840
▁received	-1841
▁add	-1842
▁needs	-1843
▁sal	-1844
▁along	-1845
▁peace	-1846
▁borrow	-1847
000	-1848
ured	-1849
▁crash	-1850
▁growing	-1851
▁healthy	-1852
▁frustrating	-1853
▁hom	-1854
▁kinda	-1855
▁failed	-1856
▁scr	-1857
▁slow	-1858
▁missing	-1859
▁appreciate	-1860
▁wallet	-1861
▁relaxing	-1862
▁gas	-1863
▁gener	-1864
▁monday	-1865
▁pulled	-1866
▁animals	-1867
▁nu	-1868
▁pot	-1869
▁hol	-1870
▁sub	-1871
▁yep	-1872
▁sort	-1873
▁cup	-1874
▁mot	-1875
▁pool	-1876
▁bother	-1877
assing	-1878
▁tired	-1879
▁telling	-1880
▁coworkers	-1881
▁cele	-1882
▁kitch	-1883
▁smell	-1884
ged	-1885
▁kitchen	-1886
▁training	-1887
man	-1888
rol	-1889
▁dam	-1890
▁appro	-1891
▁sever	-1892
▁celebr	-1893
▁30	-1894
▁sy	-1895
iving	-1896
▁bank	-1897
▁accompl	-1898
▁arri	-1899
▁problems	-1900
edu	-1901
▁aren	-1902
▁social	-1903
▁scratch	-1904
▁black	-1905
▁score	-1906
▁steal	-1907
▁disney	-1908
▁camping	-1909
▁av	-1910
▁classes	-1911
▁comfort	-1912
erg	-1913
▁deli	-1914
▁repl	-1915
▁asking	-1916
▁saying	-1917
▁surger	-1918
ters	-1919
▁bag	-1920
▁hey	-1921
▁pat	-1922
▁spr	-1923
▁stopped	-1924
ays	-1925
time	-1926
▁col	-1927
▁inde	-1928
▁church	-1929
▁helping	-1930
▁teacher	-1931
▁cash	-1932
▁dest	-1933
▁given	-1934
▁shouldn	-1935
oor	-1936
tle	-1937
▁dou	-1938
▁sund	-1939
▁offer	-1940
▁emotion	-1941
▁cleaning	-1942
gan	-1943
▁rug	-1944
eless	-1945
▁employ	-1946
▁indeed	-1947
▁stayed	-1948
▁stupid	-1949
▁accomplish	-1950
ese	-1951
ize	-1952
uly	-1953
▁dish	-1954
▁trump	-1955
▁intern	-1956
lies	-1957
▁deg	-1958
ipped	-1959
▁lives	-1960
▁power	-1961
▁giving	-1962
ket	-1963
▁awh	-1964
▁ill	-1965
▁photos	-1966
▁thankfully	-1967
ted	-1968
▁cars	-1969
▁phys	-1970
▁crush	-1971
▁ground	-1972
▁invited	-1973
▁surgery	-1974
cus	-1975
ified	-1976
▁dress	-1977
▁shoes	-1978
▁rent	-1979
▁serv	-1980
▁tast	-1981
▁expected	-1982
av	-1983
rect	-1984
sw	-1985
book	-1986
▁star	-1987
▁holid	-1988
▁become	-1989
ial	-1990
▁fit	-1991
▁publ	-1992
▁control	-1993
▁trusted	-1994
▁noticed	-1995
▁cheating	-1996
▁lar	-1997
▁rude	-1998
▁cause	-1999
▁chick	-2000
▁showed	-2001
dden	-2002
▁die	-2003
▁opt	-2004
▁cruise	-2005
▁perform	-2006
ber	-2007
cing	-2008
▁sun	-2009
▁helps	-2010
▁saved	-2011
▁animal	-2012
▁changed	-2013
▁dollars	-2014
▁wanting	-2015
ps	-2016
▁lit	-2017
▁coun	-2018
▁wast	-2019
▁reminded	-2020
▁cream	-2021
▁losing	-2022
▁parent	-2023
▁touch	-2024
▁talked	-2025
▁attention	-2026
bbed	-2027
▁aunt	-2028
▁pray	-2029
▁piece	-2030
▁spilled	-2031
▁complain	-2032
▁ind	-2033
ision	-2034
▁awhile	-2035
▁eventually	-2036
▁hi	-2037
ility	-2038
▁fire	-2039
worker	-2040
▁success	-2041
▁gh	-2042
▁kno	-2043
▁answ	-2044
▁jobs	-2045
▁cheat	-2046
▁drunk	-2047
▁scare	-2048
▁issues	-2049
▁cooking	-2050
vest	-2051
fying	-2052
▁spee	-2053
selves	-2054
▁roommate	-2055
▁everywhere	-2056
▁item	-2057
▁nope	-2058
▁reco	-2059
isters	-2060
▁impressive	-2061
to	-2062
key	-2063
▁ob	-2064
▁loan	-2065
▁tour	-2066
▁wear	-2067
▁snake	-2068
▁speech	-2069
▁honestly	-2070
een	-2071
▁skill	-2072
▁amount	-2073
col	-2074
▁jump	-2075
▁prof	-2076
▁quit	-2077
▁degree	-2078
▁sudden	-2079
ssed	-2080
▁gar	-2081
istic	-2082
▁kick	-2083
▁cancel	-2084
▁driver	-2085
ized	-2086
▁inf	-2087
▁wre	-2088
▁fear	-2089
▁kill	-2090
▁blood	-2091
▁shows	-2092
▁sisters	-2093
?!	-2094
gin	-2095
▁emp	-2096
▁chocol	-2097
▁supplies	-2098
▁longer	-2099
▁univers	-2100
▁gra	-2101
▁large	-2102
con	-2103
iss	-2104
▁flor	-2105
▁death	-2106
▁noise	-2107
▁speak	-2108
▁stink	-2109
aked	-2110
▁leg	-2111
▁opp	-2112
▁strugg	-2113
▁embarrassing	-2114
ida	-2115
▁public	-2116
▁strang	-2117
▁switch	-2118
▁whenever	-2119
▁happening	-2120
du	-2121
no	-2122
▁maj	-2123
ication	-2124
▁florida	-2125
▁spending	-2126
ili	-2127
oted	-2128
▁bare	-2129
▁mistake	-2130
ah	-2131
lo	-2132
bies	-2133
▁bon	-2134
▁tor	-2135
▁stepped	-2136
▁pur	-2137
oring	-2138
▁plac	-2139
▁qual	-2140
▁service	-2141
▁promised	-2142
old	-2143
airs	-2144
ering	-2145
▁satis	-2146
▁riding	-2147
▁brothers	-2148
▁possible	-2149
mon	-2150
▁ten	-2151
▁send	-2152
▁ghost	-2153
▁easier	-2154
▁sunday	-2155
▁goodness	-2156
▁graduate	-2157
▁daughters	-2158
▁presentation	-2159
▁val	-2160
▁wer	-2161
ks	-2162
▁cre	-2163
▁floor	-2164
▁truly	-2165
▁hurric	-2166
▁fixed	-2167
▁sense	-2168
▁enjoyed	-2169
▁stressful	-2170
▁disgusting	-2171
ror	-2172
iety	-2173
ments	-2174
▁ball	-2175
▁wood	-2176
icious	-2177
▁cried	-2178
▁empty	-2179
▁current	-2180
▁putting	-2181
▁expl	-2182
▁trans	-2183
▁alright	-2184
▁deserve	-2185
oint	-2186
antly	-2187
unity	-2188
▁lawn	-2189
▁shop	-2190
▁ther	-2191
▁knowing	-2192
▁winning	-2193
▁chocolate	-2194
ccer	-2195
▁arg	-2196
▁bow	-2197
▁adult	-2198
▁buddy	-2199
▁extre	-2200
▁nerve	-2201
▁speed	-2202
▁using	-2203
▁soccer	-2204
che	-2205
▁fil	-2206
▁bonus	-2207
▁hahaha	-2208
pa	-2209
▁nast	-2210
▁shame	-2211
▁train	-2212
▁contact	-2213
▁contest	-2214
its	-2215
ots	-2216
ency	-2217
land	-2218
▁eag	-2219
issed	-2220
▁sign	-2221
ix	-2222
▁rese	-2223
▁wasnt	-2224
▁returned	-2225
▁financial	-2226
▁cau	-2227
▁vom	-2228
▁fing	-2229
▁apply	-2230
▁exams	-2231
▁major	-2232
▁paper	-2233
▁quest	-2234
▁choice	-2235
▁pleased	-2236
▁respons	-2237
hh	-2238
ell	-2239
oid	-2240
▁cri	-2241
▁hon	-2242
▁loss	-2243
▁candy	-2244
▁babies	-2245
▁partic	-2246
▁stinks	-2247
ald	-2248
▁ben	-2249
▁adop	-2250
▁contin	-2251
▁ruined	-2252
roy	-2253
yal	-2254
▁ive	-2255
▁resc	-2256
▁syst	-2257
▁nasty	-2258
▁tripped	-2259
cc	-2260
uts	-2261
father	-2262
ww	-2263
nam	-2264
ote	-2265
▁gre	-2266
itten	-2267
▁bros	-2268
▁anxiety	-2269
▁consider	-2270
resh	-2271
▁gard	-2272
▁sand	-2273
asters	-2274
▁meant	-2275
▁destroy	-2276
▁strange	-2277
pet	-2278
ilar	-2279
▁clear	-2280
▁relie	-2281
▁system	-2282
▁learning	-2283
▁research	-2284
intend	-2285
▁accepted	-2286
fer	-2287
▁pan	-2288
▁stra	-2289
▁fault	-2290
▁killed	-2291
ses	-2292
come	-2293
ored	-2294
▁pets	-2295
▁fresh	-2296
intendo	-2297
▁dating	-2298
▁flight	-2299
▁rather	-2300
▁nintendo	-2301
▁university	-2302
ats	-2303
▁arm	-2304
▁lay	-2305
▁ahead	-2306
▁alive	-2307
▁buying	-2308
▁pissed	-2309
▁baseball	-2310
▁grandfather	-2311
▁emer	-2312
▁thri	-2313
icking	-2314
▁sport	-2315
▁er	-2316
▁eff	-2317
riage	-2318
vered	-2319
▁teen	-2320
▁strong	-2321
▁internet	-2322
ado	-2323
▁12	-2324
pper	-2325
▁cheap	-2326
▁loyal	-2327
▁hungry	-2328
▁number	-2329
▁report	-2330
▁appoint	-2331
▁careful	-2332
▁however	-2333
▁suppose	-2334
ape	-2335
▁occ	-2336
ession	-2337
▁badly	-2338
▁opened	-2339
▁himself	-2340
ama	-2341
eld	-2342
ikes	-2343
▁sold	-2344
▁flying	-2345
▁normal	-2346
▁several	-2347
▁swimming	-2348
aw	-2349
▁ach	-2350
▁beer	-2351
▁cart	-2352
▁eyes	-2353
▁spot	-2354
▁story	-2355
▁effort	-2356
▁figure	-2357
▁picked	-2358
▁spider	-2359
▁chicken	-2360
▁package	-2361
▁homeless	-2362
▁delicious	-2363
▁afterwards	-2364
▁id	-2365
▁adm	-2366
▁har	-2367
▁tax	-2368
▁bird	-2369
▁song	-2370
▁miles	-2371
▁attend	-2372
▁hallow	-2373
▁cleaned	-2374
▁staying	-2375
▁competition	-2376
ade	-2377
don	-2378
▁cop	-2379
mbers	-2380
▁beha	-2381
▁main	-2382
▁mort	-2383
▁share	-2384
mm	-2385
ub	-2386
unted	-2387
▁lead	-2388
idence	-2389
▁pound	-2390
▁weren	-2391
▁barely	-2392
▁whatever	-2393
▁bel	-2394
▁jer	-2395
olved	-2396
▁words	-2397
▁garden	-2398
▁notice	-2399
▁halloween	-2400
▁hurricane	-2401
sy	-2402
▁nur	-2403
gress	-2404
▁blue	-2405
▁gold	-2406
▁hadn	-2407
▁sell	-2408
▁invest	-2409
▁minute	-2410
▁proper	-2411
▁winter	-2412
▁feelings	-2413
▁sleeping	-2414
▁irritated	-2415
ze	-2416
▁det	-2417
▁pee	-2418
▁means	-2419
▁purch	-2420
▁amazed	-2421
▁basement	-2422
▁distance	-2423
▁comfortable	-2424
▁sou	-2425
▁debt	-2426
▁four	-2427
▁torn	-2428
inking	-2429
▁items	-2430
▁annivers	-2431
▁appointment	-2432
▁100	-2433
▁low	-2434
▁squ	-2435
▁bike	-2436
▁post	-2437
▁emerg	-2438
▁trave	-2439
▁asleep	-2440
▁bummer	-2441
▁packed	-2442
▁terrifying	-2443
▁tex	-2444
▁bull	-2445
▁fart	-2446
▁fort	-2447
▁grew	-2448
▁hasn	-2449
▁wont	-2450
coming	-2451
▁extrem	-2452
▁finding	-2453
▁student	-2454
▁certainly	-2455
olen	-2456
▁cond	-2457
▁feed	-2458
▁issue	-2459
▁cheese	-2460
fl	-2461
▁et	-2462
▁achie	-2463
▁nerves	-2464
▁checked	-2465
▁themselves	-2466
▁const	-2467
▁couch	-2468
▁shirt	-2469
▁managed	-2470
▁stressed	-2471
▁extremely	-2472
▁satisfied	-2473
▁anniversary	-2474
50	-2475
par	-2476
ude	-2477
▁drug	-2478
▁mill	-2479
▁note	-2480
▁stom	-2481
▁glass	-2482
▁handle	-2483
▁against	-2484
▁picture	-2485
▁replace	-2486
▁aut	-2487
▁deep	-2488
▁tree	-2489
▁filled	-2490
▁crashed	-2491
▁herself	-2492
▁towards	-2493
▁anywhere	-2494
▁stranger	-2495
ta	-2496
den	-2497
ises	-2498
▁pop	-2499
▁cold	-2500
▁loves	-2501
▁photo	-2502
▁stick	-2503
▁travel	-2504
aged	-2505
irty	-2506
▁cro	-2507
▁mostly	-2508
▁haunted	-2509
▁reading	-2510
▁decision	-2511
lew	-2512
▁mc	-2513
ging	-2514
ices	-2515
ilet	-2516
ptop	-2517
▁alb	-2518
▁nat	-2519
▁scre	-2520
▁toys	-2521
▁allow	-2522
▁heartb	-2523
▁laptop	-2524
▁places	-2525
▁toilet	-2526
▁somewhere	-2527
ube	-2528
▁bat	-2529
asing	-2530
chool	-2531
▁burn	-2532
▁inform	-2533
▁graduation	-2534
▁om	-2535
▁fact	-2536
▁pair	-2537
▁grown	-2538
▁carpet	-2539
▁visiting	-2540
▁50	-2541
▁jumped	-2542
▁memory	-2543
▁talent	-2544
▁boo	-2545
ument	-2546
▁body	-2547
▁feet	-2548
▁pays	-2549
▁rock	-2550
▁text	-2551
▁drove	-2552
▁human	-2553
▁manage	-2554
▁dentist	-2555
▁stomach	-2556
▁facebook	-2557
▁uh	-2558
iest	-2559
vent	-2560
▁vet	-2561
▁album	-2562
▁satur	-2563
▁incred	-2564
▁drinking	-2565
.:	-2566
agn	-2567
dge	-2568
▁art	-2569
▁gun	-2570
▁sky	-2571
▁thr	-2572
▁mall	-2573
▁impro	-2574
▁fortun	-2575
▁promoted	-2576
ween	-2577
▁lic	-2578
▁push	-2579
▁court	-2580
▁twice	-2581
▁between	-2582
▁wearing	-2583
▁building	-2584
▁fat	-2585
▁laz	-2586
▁creep	-2587
▁gives	-2588
▁uncle	-2589
▁process	-2590
▁key	-2591
▁lie	-2592
▁fired	-2593
imistic	-2594
▁shower	-2595
▁drivers	-2596
▁medical	-2597
▁marriage	-2598
▁flow	-2599
▁wake	-2600
▁hands	-2601
▁danger	-2602
▁fishing	-2603
▁saturday	-2604
port	-2605
▁sug	-2606
bling	-2607
▁gosh	-2608
▁hell	-2609
▁says	-2610
donald	-2611
▁bummed	-2612
▁biggest	-2613
▁prepare	-2614
▁emergency	-2615
erc	-2616
let	-2617
und	-2618
▁13	-2619
▁40	-2620
▁lazy	-2621
▁books	-2622
▁match	-2623
▁closed	-2624
▁opport	-2625
▁stolen	-2626
▁cookies	-2627
▁hanging	-2628
▁upcoming	-2629
▁spo	-2630
▁dumb	-2631
▁begin	-2632
▁liter	-2633
▁organ	-2634
▁decent	-2635
▁reward	-2636
▁skills	-2637
▁moments	-2638
▁tournam	-2639
▁emotional	-2640
▁unfortunate	-2641
ear	-2642
▁smo	-2643
ached	-2644
▁doesnt	-2645
▁fiance	-2646
▁regret	-2647
ains	-2648
bron	-2649
▁omg	-2650
kward	-2651
▁avoid	-2652
▁color	-2653
▁lebron	-2654
▁coaster	-2655
▁ign	-2656
▁inj	-2657
itude	-2658
▁race	-2659
▁blame	-2660
▁exerc	-2661
▁plane	-2662
▁pride	-2663
▁grades	-2664
▁taught	-2665
▁shouldnt	-2666
▁optimistic	-2667
ets	-2668
ued	-2669
gram	-2670
▁men	-2671
▁unf	-2672
▁clim	-2673
▁doubt	-2674
▁table	-2675
▁apolog	-2676
▁hearing	-2677
▁turning	-2678
▁mcdonald	-2679
ai	-2680
ended	-2681
▁divor	-2682
▁motiv	-2683
▁boring	-2684
▁calling	-2685
▁reminds	-2686
cif	-2687
ries	-2688
▁tem	-2689
▁alth	-2690
▁mouth	-2691
▁schol	-2692
▁career	-2693
▁horror	-2694
▁yelled	-2695
▁awkward	-2696
▁although	-2697
▁involved	-2698
▁celebrate	-2699
▁groceries	-2700
sit	-2701
▁hy	-2702
▁ya	-2703
ront	-2704
▁201	-2705
▁crow	-2706
▁requ	-2707
▁tech	-2708
▁flood	-2709
▁specif	-2710
ins	-2711
▁cu	-2712
▁advice	-2713
▁scream	-2714
▁holiday	-2715
▁particular	-2716
ef	-2717
amp	-2718
how	-2719
ilt	-2720
oof	-2721
nect	-2722
ucks	-2723
▁neg	-2724
▁tip	-2725
▁vol	-2726
▁fish	-2727
▁therap	-2728
▁breaking	-2729
▁personal	-2730
▁literally	-2731
ague	-2732
arship	-2733
▁level	-2734
▁niece	-2735
▁burger	-2736
▁dollar	-2737
▁harder	-2738
▁messed	-2739
▁station	-2740
▁relative	-2741
▁seriously	-2742
ien	-2743
read	-2744
▁egg	-2745
▁six	-2746
▁shel	-2747
▁crowd	-2748
▁diagn	-2749
▁gifts	-2750
▁react	-2751
▁recip	-2752
▁headed	-2753
▁convers	-2754
▁fingers	-2755
▁keeping	-2756
▁confidence	-2757
ler	-2758
ened	-2759
ergy	-2760
▁blo	-2761
▁eye	-2762
▁disc	-2763
▁rush	-2764
inting	-2765
▁cross	-2766
▁south	-2767
▁program	-2768
▁scholarship	-2769
od	-2770
els	-2771
▁da	-2772
ibly	-2773
▁bey	-2774
ising	-2775
ology	-2776
▁elect	-2777
▁focus	-2778
▁likes	-2779
▁yikes	-2780
▁eagles	-2781
▁except	-2782
▁similar	-2783
▁students	-2784
▁sol	-2785
ances	-2786
▁drop	-2787
▁milk	-2788
▁york	-2789
▁board	-2790
▁cance	-2791
▁whats	-2792
▁attack	-2793
▁crying	-2794
▁market	-2795
▁license	-2796
▁normally	-2797
arm	-2798
ator	-2799
▁bot	-2800
▁yup	-2801
▁yout	-2802
▁behav	-2803
▁dirty	-2804
▁gotta	-2805
▁sandw	-2806
▁became	-2807
▁bright	-2808
▁spouse	-2809
▁randomly	-2810
bit	-2811
ume	-2812
▁bri	-2813
▁cir	-2814
▁tin	-2815
iders	-2816
▁chat	-2817
▁insp	-2818
▁lake	-2819
▁prov	-2820
▁rare	-2821
▁camer	-2822
▁cooked	-2823
▁suddenly	-2824
eth	-2825
xic	-2826
▁reun	-2827
▁stor	-2828
▁flowers	-2829
▁sandwich	-2830
▁destroyed	-2831
eric	-2832
orth	-2833
yard	-2834
roken	-2835
▁dude	-2836
▁moms	-2837
▁award	-2838
▁blast	-2839
▁americ	-2840
▁fridge	-2841
▁respect	-2842
ckey	-2843
▁pig	-2844
astic	-2845
▁drag	-2846
▁five	-2847
▁mount	-2848
▁pleas	-2849
▁wreck	-2850
▁charge	-2851
▁kitten	-2852
▁performance	-2853
yle	-2854
lish	-2855
▁gri	-2856
▁bowl	-2857
▁craw	-2858
▁plus	-2859
▁lights	-2860
▁within	-2861
▁babysit	-2862
▁grossed	-2863
▁dangerous	-2864
oc	-2865
▁14	-2866
▁env	-2867
▁odd	-2868
▁sna	-2869
▁toy	-2870
▁tre	-2871
▁fant	-2872
▁hide	-2873
▁hitting	-2874
▁million	-2875
▁visited	-2876
▁youtube	-2877
▁approved	-2878
▁laughing	-2879
iod	-2880
icing	-2881
▁shot	-2882
giving	-2883
▁carry	-2884
▁honor	-2885
▁produ	-2886
▁charac	-2887
▁easily	-2888
▁period	-2889
▁account	-2890
▁wouldnt	-2891
▁mistakes	-2892
▁straight	-2893
▁profession	-2894
▁tournament	-2895
▁heartbroken	-2896
▁thanksgiving	-2897
20	-2898
ift	-2899
▁etc	-2900
▁tend	-2901
▁supri	-2902
▁beyond	-2903
▁brings	-2904
▁closer	-2905
▁waited	-2906
ayed	-2907
▁tas	-2908
itted	-2909
ulous	-2910
▁alot	-2911
▁desk	-2912
▁mile	-2913
▁bless	-2914
▁track	-2915
▁engine	-2916
▁oldest	-2917
▁passing	-2918
▁smelled	-2919
▁somehow	-2920
▁disappointing	-2921
vis	-2922
icer	-2923
▁ant	-2924
check	-2925
ights	-2926
otect	-2927
▁boat	-2928
▁keys	-2929
▁nail	-2930
▁ring	-2931
▁apart	-2932
▁shock	-2933
▁tooth	-2934
▁refund	-2935
▁achieve	-2936
▁explain	-2937
▁spiders	-2938
▁tornado	-2939
▁depressed	-2940
▁following	-2941
".	-2942
enty	-2943
ines	-2944
▁fed	-2945
▁hes	-2946
▁rat	-2947
▁uni	-2948
board	-2949
edule	-2950
▁tiny	-2951
▁landl	-2952
▁mexic	-2953
▁shoot	-2954
▁depend	-2955
▁nights	-2956
▁arrived	-2957
▁correct	-2958
▁freaked	-2959
▁letting	-2960
▁attitude	-2961
▁delivery	-2962
avy	-2963
oun	-2964
▁edu	-2965
▁hid	-2966
▁uns	-2967
▁goal	-2968
▁tire	-2969
▁cards	-2970
▁waste	-2971
▁fright	-2972
▁hockey	-2973
▁letter	-2974
▁simple	-2975
▁sports	-2976
▁regular	-2977
▁experien	-2978
▁landlord	-2979
▁practice	-2980
▁stealing	-2981
▁throwing	-2982
asy	-2983
▁ed	-2984
care	-2985
fast	-2986
omed	-2987
rage	-2988
ether	-2989
igned	-2990
▁jerk	-2991
▁lane	-2992
▁ways	-2993
▁field	-2994
▁occas	-2995
▁third	-2996
▁closet	-2997
▁rescue	-2998
▁robbed	-2999
▁receive	-3000
ato	-3001
hic	-3002
ove	-3003
illy	-3004
▁dem	-3005
▁jud	-3006
▁desp	-3007
▁educ	-3008
▁surv	-3009
▁wash	-3010
▁plant	-3011
ilities	-3012
▁answer	-3013
▁dishes	-3014
▁pounds	-3015
▁prefer	-3016
▁review	-3017
▁ripped	-3018
▁stoked	-3019
▁patient	-3020
▁shelter	-3021
▁applying	-3022
▁cancelled	-3023
▁remembered	-3024
bby	-3025
medi	-3026
▁awe	-3027
▁butt	-3028
▁calc	-3029
▁calm	-3030
▁heat	-3031
▁till	-3032
▁appar	-3033
▁techn	-3034
ational	-3035
▁acting	-3036
▁immedi	-3037
▁protect	-3038
▁vomited	-3039
▁grandpar	-3040
▁progress	-3041
▁cas	-3042
▁poke	-3043
▁rele	-3044
▁havent	-3045
▁nearly	-3046
▁relate	-3047
▁backyard	-3048
▁mortified	-3049
▁successful	-3050
▁opportunity	-3051
my	-3052
ety	-3053
▁wra	-3054
iling	-3055
▁bugs	-3056
▁email	-3057
▁grass	-3058
▁miser	-3059
▁motor	-3060
▁spring	-3061
▁volunt	-3062
▁english	-3063
▁general	-3064
▁holding	-3065
▁laughed	-3066
▁subject	-3067
▁therapy	-3068
▁breakfast	-3069
▁apparently	-3070
▁constantly	-3071
sk	-3072
cake	-3073
what	-3074
▁cell	-3075
▁mach	-3076
▁mood	-3077
▁loose	-3078
▁tests	-3079
▁yours	-3080
▁basket	-3081
▁burned	-3082
▁energy	-3083
▁hardly	-3084
▁pumped	-3085
▁whether	-3086
▁holidays	-3087
▁concerned	-3088
▁practicing	-3089
▁information	-3090
atic	-3091
▁flat	-3092
▁jack	-3093
▁shut	-3094
▁creat	-3095
▁teeth	-3096
▁bigger	-3097
▁caused	-3098
▁teenag	-3099
▁pokemon	-3100
▁volunte	-3101
▁basically	-3102
eng	-3103
back	-3104
▁bal	-3105
▁mix	-3106
▁typ	-3107
gging	-3108
▁flew	-3109
▁drank	-3110
▁giant	-3111
▁hated	-3112
▁known	-3113
▁space	-3114
▁steps	-3115
▁damage	-3116
▁direct	-3117
▁garage	-3118
▁coasters	-3119
he	-3120
aper	-3121
▁000	-3122
▁sen	-3123
▁none	-3124
▁wild	-3125
▁becom	-3126
▁dance	-3127
▁flies	-3128
▁locked	-3129
▁lovely	-3130
▁afterno	-3131
▁divorce	-3132
▁evening	-3133
▁knocked	-3134
▁physics	-3135
▁somebody	-3136
▁currently	-3137
min	-3138
urs	-3139
ides	-3140
▁mow	-3141
▁net	-3142
▁veg	-3143
▁hist	-3144
▁neck	-3145
▁nose	-3146
▁amuse	-3147
▁hotel	-3148
▁owner	-3149
▁vehic	-3150
iculous	-3151
▁addict	-3152
▁helpful	-3153
▁afternoon	-3154
▁amusement	-3155
▁responsib	-3156
▁interested	-3157
bly	-3158
ker	-3159
que	-3160
▁25	-3161
▁ath	-3162
▁mag	-3163
▁spl	-3164
under	-3165
▁roof	-3166
▁skin	-3167
▁todd	-3168
▁youn	-3169
▁fully	-3170
▁total	-3171
▁woods	-3172
▁unless	-3173
▁doctors	-3174
▁behavior	-3175
▁confront	-3176
▁paycheck	-3177
▁question	-3178
▁sometime	-3179
▁immediately	-3180
▁conversation	-3181
af	-3182
▁je	-3183
here	-3184
▁lif	-3185
▁toe	-3186
mates	-3187
urity	-3188
▁dump	-3189
▁gate	-3190
▁held	-3191
▁breat	-3192
▁white	-3193
▁abused	-3194
▁attract	-3195
▁depress	-3196
▁nowhere	-3197
▁slipped	-3198
▁continue	-3199
▁specific	-3200
▁supervis	-3201
▁diagnosed	-3202
▁everytime	-3203
go	-3204
icy	-3205
ino	-3206
ages	-3207
▁saf	-3208
▁prin	-3209
▁warm	-3210
▁drugs	-3211
▁please	-3212
▁wasted	-3213
▁crushed	-3214
▁figured	-3215
▁complete	-3216
▁deserved	-3217
▁rollerco	-3218
▁speeding	-3219
▁youngest	-3220
▁appreciated	-3221
▁grandparents	-3222
ames	-3223
ites	-3224
▁rot	-3225
▁draw	-3226
▁dreams	-3227
▁farted	-3228
▁invite	-3229
▁lesson	-3230
▁retire	-3231
▁senior	-3232
▁cashier	-3233
▁covered	-3234
▁picking	-3235
▁product	-3236
▁teaching	-3237
▁frustrated	-3238
▁struggling	-3239
erly	-3240
whel	-3241
ained	-3242
ients	-3243
▁peed	-3244
▁soft	-3245
▁brown	-3246
▁chall	-3247
▁ditch	-3248
▁texas	-3249
▁women	-3250
▁noises	-3251
▁peaceful	-3252
▁miserable	-3253
▁ridiculous	-3254
▁supervisor	-3255
▁accomplished	-3256
uum	-3257
▁11	-3258
▁film	-3259
▁furn	-3260
▁climb	-3261
▁disco	-3262
▁signed	-3263
▁worker	-3264
▁history	-3265
▁improve	-3266
▁argument	-3267
▁condition	-3268
bage	-3269
ific	-3270
mare	-3271
ural	-3272
▁haw	-3273
▁repe	-3274
employ	-3275
▁calcul	-3276
▁nobody	-3277
▁parked	-3278
▁relief	-3279
▁raining	-3280
▁occasion	-3281
▁speaking	-3282
▁mcdonalds	-3283
▁department	-3284
night	-3285
▁cand	-3286
▁onto	-3287
▁sale	-3288
▁media	-3289
▁mower	-3290
▁spray	-3291
▁affect	-3292
▁athlet	-3293
▁decide	-3294
▁humili	-3295
▁recipe	-3296
▁science	-3297
▁security	-3298
omy	-3299
▁ju	-3300
▁row	-3301
▁whe	-3302
acked	-3303
akers	-3304
▁conv	-3305
▁parts	-3306
▁uncom	-3307
▁drinks	-3308
▁repair	-3309
▁reunion	-3310
▁vehicle	-3311
▁enjoying	-3312
▁traveling	-3313
100	-3314
omb	-3315
rop	-3316
cent	-3317
haps	-3318
▁doc	-3319
▁oil	-3320
▁pit	-3321
▁tho	-3322
arten	-3323
▁econ	-3324
▁join	-3325
▁mass	-3326
▁priv	-3327
▁suck	-3328
▁hawai	-3329
▁shape	-3330
▁sugar	-3331
▁creepy	-3332
▁vacuum	-3333
▁charged	-3334
▁crossed	-3335
▁falling	-3336
▁perhaps	-3337
▁nightmare	-3338
▁preparing	-3339
▁remembering	-3340
ls	-3341
hol	-3342
ires	-3343
ival	-3344
kely	-3345
▁dan	-3346
▁enc	-3347
▁nap	-3348
▁por	-3349
▁pun	-3350
▁wel	-3351
velop	-3352
▁intro	-3353
▁mater	-3354
▁swear	-3355
▁sweat	-3356
▁vegas	-3357
▁belong	-3358
▁blamed	-3359
▁corner	-3360
▁drives	-3361
▁adopted	-3362
▁despite	-3363
▁garbage	-3364
▁overwhel	-3365
ceed	-3366
eral	-3367
▁200	-3368
▁ham	-3369
▁jun	-3370
▁til	-3371
cohol	-3372
iture	-3373
▁stri	-3374
ushing	-3375
▁attic	-3376
▁beard	-3377
▁fancy	-3378
▁polit	-3379
▁taste	-3380
▁traum	-3381
▁double	-3382
▁record	-3383
▁alcohol	-3384
▁kinderg	-3385
▁community	-3386
▁education	-3387
▁fantastic	-3388
▁furniture	-3389
▁listening	-3390
▁purchased	-3391
▁basketball	-3392
uth	-3393
▁ep	-3394
fish	-3395
gers	-3396
▁lim	-3397
▁blow	-3398
▁cent	-3399
▁chem	-3400
▁guit	-3401
▁hous	-3402
▁meat	-3403
▁rode	-3404
▁snow	-3405
▁alarm	-3406
▁freak	-3407
▁homes	-3408
▁medic	-3409
▁price	-3410
▁sales	-3411
▁stage	-3412
▁steak	-3413
▁arrive	-3414
▁unable	-3415
▁develop	-3416
▁heights	-3417
▁obvious	-3418
▁recover	-3419
▁stories	-3420
▁thrones	-3421
▁calculus	-3422
▁president	-3423
mart	-3424
▁cab	-3425
▁nah	-3426
▁pie	-3427
iliar	-3428
izing	-3429
▁agre	-3430
▁sooo	-3431
▁adopt	-3432
▁earth	-3433
▁fence	-3434
▁purse	-3435
▁reach	-3436
▁wrote	-3437
▁higher	-3438
▁lakers	-3439
▁plenty	-3440
▁blessed	-3441
▁entered	-3442
▁pregnan	-3443
▁negative	-3444
▁somewhat	-3445
▁professional	-3446
!:	-3447
gra	-3448
▁ow	-3449
iled	-3450
▁bun	-3451
▁rad	-3452
iring	-3453
▁crap	-3454
▁dire	-3455
▁rely	-3456
▁whoa	-3457
▁cable	-3458
▁ending	-3459
▁guitar	-3460
▁kicked	-3461
▁search	-3462
▁videos	-3463
▁happier	-3464
▁machine	-3465
▁warning	-3466
▁thrilled	-3467
▁irritating	-3468
ife	-3469
▁ace	-3470
cious	-3471
▁soup	-3472
▁hired	-3473
▁hurts	-3474
▁lefto	-3475
▁lying	-3476
▁peeved	-3477
▁airport	-3478
▁members	-3479
▁borrowed	-3480
▁perfectly	-3481
▁graduating	-3482
▁interviews	-3483
lu	-3484
boy	-3485
ped	-3486
rupt	-3487
▁flu	-3488
▁wet	-3489
▁awww	-3490
▁cher	-3491
▁dece	-3492
▁laid	-3493
▁size	-3494
▁above	-3495
▁bread	-3496
▁eaten	-3497
▁shift	-3498
▁league	-3499
▁engaged	-3500
▁sibling	-3501
▁schedule	-3502
▁questions	-3503
▁situations	-3504
att	-3505
box	-3506
cri	-3507
amas	-3508
▁lbs	-3509
▁ram	-3510
ished	-3511
▁heck	-3512
stairs	-3513
▁marry	-3514
▁agreed	-3515
▁landed	-3516
▁screen	-3517
▁series	-3518
fortable	-3519
▁selling	-3520
▁trained	-3521
▁checking	-3522
▁exercise	-3523
▁friendship	-3524
▁appreciative	-3525
ees	-3526
ute	-3527
▁ge	-3528
ives	-3529
inder	-3530
light	-3531
▁boys	-3532
icated	-3533
orting	-3534
▁bored	-3535
▁deter	-3536
▁punch	-3537
▁instru	-3538
▁mention	-3539
▁pregnancy	-3540
▁financially	-3541
ne	-3542
eez	-3543
▁bi	-3544
▁vo	-3545
aced	-3546
cket	-3547
ison	-3548
▁den	-3549
▁ren	-3550
▁kiss	-3551
▁neat	-3552
▁ouch	-3553
▁rout	-3554
school	-3555
▁breed	-3556
▁cheer	-3557
▁goals	-3558
▁plays	-3559
▁hawaii	-3560
▁insane	-3561
▁raised	-3562
▁bedroom	-3563
▁quality	-3564
▁respond	-3565
▁employee	-3566
▁delivered	-3567
▁incredible	-3568
tt	-3569
app	-3570
ett	-3571
omm	-3572
▁21	-3573
lept	-3574
wise	-3575
▁kit	-3576
▁non	-3577
▁oce	-3578
▁pen	-3579
alled	-3580
ister	-3581
sters	-3582
▁dread	-3583
▁heavy	-3584
▁knock	-3585
▁press	-3586
▁value	-3587
▁albums	-3588
▁daycare	-3589
▁dealing	-3590
▁opening	-3591
▁promise	-3592
▁property	-3593
▁cheesecake	-3594
born	-3595
▁mal	-3596
▁ohh	-3597
▁earn	-3598
▁ends	-3599
▁purp	-3600
▁risk	-3601
▁guard	-3602
▁style	-3603
▁loving	-3604
▁motorcy	-3605
▁canceled	-3606
▁kindergarten	-3607
▁uncomfortable	-3608
sp	-3609
alk	-3610
nes	-3611
▁ol	-3612
▁bug	-3613
▁damn	-3614
▁hund	-3615
▁load	-3616
▁upon	-3617
▁drama	-3618
▁kinds	-3619
▁porch	-3620
▁silly	-3621
▁trick	-3622
▁backed	-3623
▁dragon	-3624
▁dumped	-3625
▁france	-3626
▁likely	-3627
▁loaned	-3628
▁recomm	-3629
▁stairs	-3630
▁storms	-3631
▁injured	-3632
▁meaning	-3633
▁staring	-3634
▁starved	-3635
▁walmart	-3636
▁screaming	-3637
aly	-3638
ann	-3639
wear	-3640
▁yum	-3641
aches	-3642
▁club	-3643
▁exce	-3644
▁form	-3645
▁hill	-3646
▁isnt	-3647
▁jail	-3648
▁seat	-3649
▁skyd	-3650
ension	-3651
▁blind	-3652
▁judge	-3653
▁plate	-3654
▁common	-3655
▁recent	-3656
▁slowly	-3657
▁tinder	-3658
▁hurting	-3659
▁shining	-3660
▁followed	-3661
▁physical	-3662
▁underwear	-3663
▁expectations	-3664
▁understanding	-3665
kn	-3666
zz	-3667
pte	-3668
son	-3669
▁eld	-3670
▁las	-3671
anted	-3672
ening	-3673
▁lock	-3674
▁horse	-3675
▁mario	-3676
▁ocean	-3677
▁prize	-3678
▁thurs	-3679
▁trail	-3680
workers	-3681
▁houses	-3682
▁madden	-3683
▁mental	-3684
▁america	-3685
▁hundred	-3686
▁praying	-3687
▁approach	-3688
▁counting	-3689
▁waitress	-3690
▁weekends	-3691
▁everybody	-3692
▁motorcycle	-3693
▁supportive	-3694
▁accomplishment	-3695
ky	-3696
chel	-3697
▁ded	-3698
▁dut	-3699
▁esc	-3700
▁ket	-3701
▁psy	-3702
adays	-3703
▁shes	-3704
▁sink	-3705
▁activ	-3706
▁foods	-3707
▁paint	-3708
▁somed	-3709
▁write	-3710
▁scored	-3711
▁painful	-3712
▁thunder	-3713
▁homework	-3714
▁nowadays	-3715
▁teenager	-3716
▁qualified	-3717
ari	-3718
ands	-3719
chan	-3720
gged	-3721
real	-3722
ship	-3723
▁dry	-3724
▁ski	-3725
ature	-3726
▁bell	-3727
▁bite	-3728
▁fond	-3729
▁mult	-3730
▁pigs	-3731
▁slam	-3732
▁tail	-3733
▁benef	-3734
▁cared	-3735
▁champ	-3736
▁hurry	-3737
▁sadly	-3738
▁shark	-3739
▁stray	-3740
▁junior	-3741
▁distract	-3742
▁thursday	-3743
▁practiced	-3744
cl	-3745
flix	-3746
lect	-3747
ring	-3748
tain	-3749
▁huh	-3750
▁tow	-3751
▁bond	-3752
▁flag	-3753
▁spit	-3754
▁tall	-3755
▁vase	-3756
▁airpl	-3757
▁songs	-3758
▁trips	-3759
ination	-3760
ptember	-3761
▁bachel	-3762
▁casino	-3763
▁convin	-3764
▁marath	-3765
▁phones	-3766
▁funeral	-3767
▁highway	-3768
▁illness	-3769
▁netflix	-3770
▁nursing	-3771
▁bringing	-3772
▁driveway	-3773
▁emotions	-3774
▁overcome	-3775
▁beginning	-3776
da	-3777
ero	-3778
▁ca	-3779
inis	-3780
▁est	-3781
▁eur	-3782
▁lad	-3783
▁und	-3784
andon	-3785
phone	-3786
▁buff	-3787
▁gest	-3788
▁kore	-3789
▁lend	-3790
▁nuts	-3791
▁scar	-3792
▁sons	-3793
▁suit	-3794
▁boxes	-3795
▁potty	-3796
▁rides	-3797
▁spoke	-3798
▁taxes	-3799
▁europe	-3800
▁excell	-3801
▁mechan	-3802
▁snakes	-3803
▁tasted	-3804
employed	-3805
▁abandon	-3806
▁challen	-3807
▁payment	-3808
▁relaxed	-3809
▁reminis	-3810
▁sounded	-3811
▁believed	-3812
▁electric	-3813
▁humiliated	-3814
▁'	-3815
lex	-3816
ton	-3817
uit	-3818
▁4.	-3819
▁ang	-3820
▁fur	-3821
▁zoo	-3822
▁bust	-3823
▁ruin	-3824
▁shoe	-3825
▁soul	-3826
▁term	-3827
▁unkn	-3828
ionate	-3829
▁built	-3830
▁fries	-3831
▁psych	-3832
▁advant	-3833
▁fairly	-3834
▁hiking	-3835
▁member	-3836
▁recogn	-3837
▁reject	-3838
▁sucked	-3839
▁chasing	-3840
▁numbers	-3841
▁reasons	-3842
▁presents	-3843
▁previous	-3844
▁otherwise	-3845
▁rewarding	-3846
▁september	-3847
▁skydiving	-3848
▁difference	-3849
:"	-3850
fc	-3851
!!!!	-3852
lace	-3853
male	-3854
▁liv	-3855
▁shy	-3856
least	-3857
▁chip	-3858
▁lord	-3859
▁alter	-3860
▁bucks	-3861
▁calif	-3862
▁clown	-3863
▁encou	-3864
▁green	-3865
▁thous	-3866
▁truth	-3867
▁usual	-3868
▁female	-3869
▁advance	-3870
▁allowed	-3871
▁element	-3872
▁overall	-3873
▁wishing	-3874
▁yelling	-3875
▁necklace	-3876
▁upsetting	-3877
▁management	-3878
▁responsible	-3879
▁understandable	-3880
grav	-3881
inge	-3882
uary	-3883
▁ban	-3884
ornia	-3885
▁hall	-3886
▁span	-3887
▁wine	-3888
idered	-3889
uition	-3890
▁blank	-3891
▁incre	-3892
▁aggrav	-3893
▁client	-3894
▁overse	-3895
▁pepper	-3896
▁snacks	-3897
▁turtle	-3898
▁cherish	-3899
▁cousins	-3900
▁ditched	-3901
▁gesture	-3902
▁neither	-3903
▁provide	-3904
▁purpose	-3905
▁workout	-3906
▁marathon	-3907
▁painting	-3908
▁committed	-3909
▁direction	-3910
▁excellent	-3911
▁fortunate	-3912
▁obviously	-3913
▁california	-3914
▁incredibly	-3915
mp	-3916
cut	-3917
ina	-3918
▁ador	-3919
▁holy	-3920
▁jour	-3921
▁outd	-3922
▁suff	-3923
▁trad	-3924
▁yuck	-3925
▁acted	-3926
▁chann	-3927
▁crime	-3928
▁nature	-3929
▁parcel	-3930
▁pushed	-3931
▁atleast	-3932
▁adorable	-3933
▁surprising	-3934
off	-3935
ung	-3936
▁fro	-3937
▁ori	-3938
▁sex	-3939
▁wit	-3940
ength	-3941
▁choo	-3942
▁dear	-3943
▁host	-3944
▁rich	-3945
▁soci	-3946
ership	-3947
▁calls	-3948
▁chill	-3949
▁daily	-3950
▁decor	-3951
▁labor	-3952
▁laund	-3953
▁tight	-3954
▁budget	-3955
▁gather	-3956
▁nearby	-3957
▁player	-3958
▁unsure	-3959
▁answers	-3960
▁anytime	-3961
▁bearded	-3962
▁closing	-3963
▁granted	-3964
▁printer	-3965
▁texting	-3966
▁toddler	-3967
▁airplane	-3968
▁becoming	-3969
▁december	-3970
▁fighting	-3971
▁overseas	-3972
▁pressure	-3973
▁shocking	-3974
▁attractive	-3975
▁considered	-3976
▁travelling	-3977
▁considering	-3978
gu	-3979
gia	-3980
▁au	-3981
▁ce	-3982
▁oo	-3983
edul	-3984
ores	-3985
sted	-3986
walk	-3987
▁fer	-3988
▁mic	-3989
▁bang	-3990
▁betr	-3991
▁cock	-3992
▁cops	-3993
▁stat	-3994
▁dying	-3995
▁homet	-3996
▁hopes	-3997
onsider	-3998
▁circus	-3999
▁commun	-4000
▁laying	-4001
▁stores	-4002
▁tricks	-4003
▁courage	-4004
▁elderly	-4005
▁jumping	-4006
▁hometown	-4007
▁purchase	-4008
▁relatives	-4009
▁scratched	-4010
▁retirement	-4011
0'	-4012
bow	-4013
▁cla	-4014
▁gig	-4015
▁hmm	-4016
▁mac	-4017
▁mir	-4018
▁sau	-4019
▁unb	-4020
ences	-4021
▁bear	-4022
▁corn	-4023
▁eggs	-4024
▁fund	-4025
▁hire	-4026
▁lies	-4027
▁mark	-4028
▁rear	-4029
▁abuse	-4030
▁frequ	-4031
▁salad	-4032
▁smile	-4033
▁itself	-4034
▁bothers	-4035
▁introdu	-4036
▁packing	-4037
▁savings	-4038
▁athletic	-4039
▁changing	-4040
▁friendly	-4041
▁thoughts	-4042
▁happiness	-4043
▁leftovers	-4044
▁wondering	-4045
▁characters	-4046
."	-4047
iew	-4048
ples	-4049
quit	-4050
▁cap	-4051
▁wan	-4052
worth	-4053
▁bott	-4054
▁cere	-4055
▁envy	-4056
▁isol	-4057
▁unlo	-4058
▁view	-4059
▁admit	-4060
▁stock	-4061
cessary	-4062
▁batter	-4063
▁chased	-4064
▁diving	-4065
▁fights	-4066
▁multip	-4067
▁scares	-4068
▁smooth	-4069
▁secrets	-4070
▁someday	-4071
▁unknown	-4072
▁blessing	-4073
▁employer	-4074
▁familiar	-4075
▁medicine	-4076
▁properly	-4077
▁restroom	-4078
▁teachers	-4079
onsiderate	-4080
▁advantage	-4081
▁elementary	-4082
▁inconsiderate	-4083
une	-4084
▁ef	-4085
ffle	-4086
▁dar	-4087
▁oct	-4088
▁tac	-4089
apers	-4090
elect	-4091
▁inse	-4092
▁path	-4093
▁scen	-4094
▁hobby	-4095
▁livid	-4096
▁annual	-4097
▁bottle	-4098
▁braves	-4099
▁donuts	-4100
▁effect	-4101
▁income	-4102
▁litter	-4103
▁dancing	-4104
▁diapers	-4105
▁failing	-4106
▁hardest	-4107
▁laundry	-4108
▁message	-4109
▁mexican	-4110
▁natural	-4111
▁rescued	-4112
▁stubbed	-4113
▁writing	-4114
▁finances	-4115
▁register	-4116
▁relieved	-4117
▁spelling	-4118
▁highschool	-4119
ana	-4120
law	-4121
apan	-4122
ians	-4123
pack	-4124
vern	-4125
▁equ	-4126
▁eww	-4127
▁mer	-4128
▁sne	-4129
ption	-4130
▁bomb	-4131
▁dise	-4132
▁duty	-4133
▁farm	-4134
▁hole	-4135
worthy	-4136
▁birds	-4137
▁japan	-4138
▁nicer	-4139
▁oppos	-4140
▁socks	-4141
▁veget	-4142
▁assume	-4143
▁cameras	-4144
▁collect	-4145
▁crawling	-4146
▁precious	-4147
▁recommend	-4148
▁frightened	-4149
--	-4150
10	-4151
yy	-4152
▁x	-4153
nis	-4154
oon	-4155
shi	-4156
▁22	-4157
▁wo	-4158
▁aud	-4159
▁mos	-4160
ender	-4161
ially	-4162
istry	-4163
▁aver	-4164
▁dirt	-4165
▁mold	-4166
▁task	-4167
▁vers	-4168
▁loans	-4169
▁shots	-4170
▁spare	-4171
▁breath	-4172
▁finger	-4173
▁poison	-4174
▁average	-4175
▁connect	-4176
▁related	-4177
▁schedul	-4178
▁skating	-4179
▁workers	-4180
▁attacked	-4181
▁strength	-4182
▁apologize	-4183
▁employees	-4184
▁experienced	-4185
▁interviewed	-4186
▁responsibility	-4187
ob	-4188
ism	-4189
the	-4190
mark	-4191
ober	-4192
▁yay	-4193
storm	-4194
▁fest	-4195
▁fill	-4196
▁fool	-4197
vision	-4198
▁assum	-4199
▁habit	-4200
▁mouse	-4201
▁camera	-4202
▁pocket	-4203
▁ability	-4204
▁october	-4205
▁singing	-4206
▁welcome	-4207
▁screamed	-4208
▁shooting	-4209
▁talented	-4210
▁abilities	-4211
▁application	-4212
▁engineering	-4213
▁trustworthy	-4214
bul	-4215
oph	-4216
ades	-4217
ials	-4218
like	-4219
list	-4220
▁bee	-4221
▁goo	-4222
.....	-4223
epend	-4224
▁coll	-4225
▁oven	-4226
▁pian	-4227
▁pupp	-4228
▁baked	-4229
▁basic	-4230
▁hesit	-4231
▁owned	-4232
▁shake	-4233
ionship	-4234
▁access	-4235
▁county	-4236
▁excuse	-4237
▁uneasy	-4238
vernment	-4239
▁economy	-4240
▁grandpa	-4241
▁ignored	-4242
▁lessons	-4243
▁profess	-4244
▁refused	-4245
▁sending	-4246
▁shatter	-4247
ification	-4248
▁multiple	-4249
▁pleasant	-4250
▁struggle	-4251
▁terribly	-4252
▁ourselves	-4253
▁volunteered	-4254
lt	-4255
ids	-4256
iol	-4257
ode	-4258
wor	-4259
▁24	-4260
bowl	-4261
over	-4262
road	-4263
uing	-4264
▁kar	-4265
▁rip	-4266
plant	-4267
▁chef	-4268
▁junk	-4269
▁legs	-4270
▁role	-4271
▁soda	-4272
▁stro	-4273
▁wore	-4274
nesday	-4275
▁avail	-4276
▁chair	-4277
▁croat	-4278
▁flash	-4279
▁slept	-4280
▁wanna	-4281
▁abroad	-4282
▁butter	-4283
▁candid	-4284
▁origin	-4285
▁select	-4286
▁severe	-4287
▁shorts	-4288
▁bowling	-4289
▁classic	-4290
▁mosquit	-4291
▁schools	-4292
▁guessing	-4293
▁standing	-4294
▁wracking	-4295
▁motivated	-4296
▁mountains	-4297
▁wednesday	-4298
▁overwhelming	-4299
gy	-4300
500	-4301
chy	-4302
erv	-4303
iev	-4304
lla	-4305
▁fra	-4306
atoes	-4307
happy	-4308
ooked	-4309
▁cord	-4310
▁opin	-4311
▁pump	-4312
▁yell	-4313
ctions	-4314
urning	-4315
▁arent	-4316
▁hello	-4317
▁ramen	-4318
▁advent	-4319
▁booked	-4320
▁diaper	-4321
▁rained	-4322
▁thrown	-4323
▁ticked	-4324
▁clearly	-4325
▁couples	-4326
▁forgive	-4327
▁mothers	-4328
▁pretend	-4329
▁private	-4330
▁society	-4331
▁succeed	-4332
▁windows	-4333
▁catching	-4334
▁freshman	-4335
▁independ	-4336
▁replaced	-4337
▁siblings	-4338
▁suprising	-4339
cr	-4340
la	-4341
mw	-4342
ery	-4343
for	-4344
ges	-4345
ify	-4346
iot	-4347
ony	-4348
ops	-4349
ulf	-4350
▁lu	-4351
etic	-4352
pons	-4353
ught	-4354
▁bmw	-4355
▁cav	-4356
▁mod	-4357
▁mut	-4358
▁ole	-4359
enses	-4360
ergic	-4361
▁arre	-4362
▁knee	-4363
▁nest	-4364
▁quar	-4365
▁scra	-4366
▁spir	-4367
▁blown	-4368
▁chose	-4369
▁famil	-4370
▁flags	-4371
▁fried	-4372
▁offic	-4373
▁puked	-4374
▁radio	-4375
▁split	-4376
▁events	-4377
▁respon	-4378
▁slight	-4379
▁tennis	-4380
▁changes	-4381
▁croatia	-4382
▁expired	-4383
▁heading	-4384
▁officer	-4385
▁washing	-4386
▁addition	-4387
▁allergic	-4388
▁colorado	-4389
▁crossing	-4390
▁election	-4391
▁particip	-4392
▁abandoned	-4393
▁bothering	-4394
▁character	-4395
▁organized	-4396
▁roommates	-4397
▁vacations	-4398
▁thoughtful	-4399
▁unexpectedly	-4400
acy	-4401
ley	-4402
ply	-4403
boys	-4404
hand	-4405
ivid	-4406
▁err	-4407
▁lab	-4408
▁poo	-4409
▁rob	-4410
▁rom	-4411
▁sil	-4412
▁tes	-4413
▁ven	-4414
allow	-4415
antic	-4416
ropri	-4417
▁crit	-4418
▁dads	-4419
▁edge	-4420
▁ment	-4421
▁port	-4422
▁crack	-4423
▁drown	-4424
▁force	-4425
▁mortg	-4426
▁screw	-4427
▁battle	-4428
▁determ	-4429
▁faster	-4430
▁leaves	-4431
▁master	-4432
▁mexico	-4433
▁unfair	-4434
▁complex	-4435
▁damaged	-4436
▁mission	-4437
▁puppies	-4438
▁showing	-4439
▁treated	-4440
▁willing	-4441
▁chatting	-4442
▁families	-4443
▁inspired	-4444
▁material	-4445
▁mountain	-4446
▁opposite	-4447
▁chemistry	-4448
▁superbowl	-4449
▁depressing	-4450
▁discovered	-4451
▁embarassed	-4452
▁physically	-4453
uss	-4454
ench	-4455
ners	-4456
pers	-4457
▁500	-4458
▁usa	-4459
icted	-4460
▁2000	-4461
▁ages	-4462
▁chew	-4463
▁deer	-4464
▁joke	-4465
▁scam	-4466
▁thro	-4467
ission	-4468
▁apple	-4469
▁areas	-4470
▁block	-4471
▁debit	-4472
▁guest	-4473
▁jeans	-4474
▁leash	-4475
▁tesla	-4476
▁announ	-4477
▁joined	-4478
▁object	-4479
▁thinks	-4480
▁balance	-4481
▁barking	-4482
▁curious	-4483
▁intense	-4484
▁journey	-4485
▁smoking	-4486
▁unhappy	-4487
▁written	-4488
▁ordering	-4489
▁response	-4490
▁transfer	-4491
▁fortunately	-4492
▁rollercoaster	-4493
oms	-4494
ron	-4495
ums	-4496
weet	-4497
▁ble	-4498
▁gal	-4499
▁ufc	-4500
icate	-4501
iment	-4502
lined	-4503
▁bags	-4504
▁blew	-4505
▁golf	-4506
▁lift	-4507
▁ohhh	-4508
▁ship	-4509
inated	-4510
raught	-4511
▁brave	-4512
▁coast	-4513
▁envir	-4514
▁irked	-4515
▁knife	-4516
▁piano	-4517
▁prior	-4518
▁renew	-4519
▁scold	-4520
▁shady	-4521
▁smoke	-4522
▁talks	-4523
▁tools	-4524
▁center	-4525
▁colors	-4526
▁infect	-4527
▁propos	-4528
▁raffle	-4529
▁anybody	-4530
▁counsel	-4531
▁cowboys	-4532
▁deliver	-4533
▁grabbed	-4534
▁deserves	-4535
▁isolated	-4536
▁sidewalk	-4537
▁available	-4538
▁supermark	-4539
▁distraught	-4540
▁achievement	-4541
ts	-4542
car	-4543
kin	-4544
ury	-4545
ache	-4546
acks	-4547
avor	-4548
oors	-4549
▁fal	-4550
▁hat	-4551
▁tab	-4552
itary	-4553
place	-4554
▁army	-4555
▁clue	-4556
▁cope	-4557
▁epis	-4558
▁file	-4559
▁inch	-4560
▁pink	-4561
▁rage	-4562
▁subm	-4563
▁tele	-4564
▁tons	-4565
▁began	-4566
▁binge	-4567
▁claim	-4568
▁husky	-4569
▁lonel	-4570
▁prank	-4571
▁round	-4572
▁sorts	-4573
▁types	-4574
▁wound	-4575
▁active	-4576
▁assign	-4577
▁demand	-4578
▁gaming	-4579
▁posted	-4580
▁simply	-4581
▁treats	-4582
▁wooded	-4583
▁causing	-4584
▁disease	-4585
▁environ	-4586
▁killing	-4587
▁lifting	-4588
▁nephews	-4589
▁pulling	-4590
▁benefits	-4591
▁climbing	-4592
▁possibly	-4593
▁released	-4594
▁favorites	-4595
▁forgotten	-4596
▁apologized	-4597
▁downstairs	-4598
▁internship	-4599
▁loneliness	-4600
▁throughout	-4601
mi	-4602
but	-4603
dog	-4604
pre	-4605
acle	-4606
anes	-4607
▁awa	-4608
▁bah	-4609
▁imm	-4610
▁spa	-4611
▁tea	-4612
▁unc	-4613
shirt	-4614
usive	-4615
▁cavs	-4616
▁evil	-4617
▁rabb	-4618
▁sket	-4619
▁tues	-4620
▁webs	-4621
▁zero	-4622
ential	-4623
▁brain	-4624
▁cares	-4625
▁doors	-4626
▁hilar	-4627
▁range	-4628
▁actual	-4629
▁altern	-4630
▁august	-4631
▁buffet	-4632
▁nailed	-4633
▁safely	-4634
tersweet	-4635
▁compass	-4636
▁haircut	-4637
▁matters	-4638
▁opinion	-4639
▁players	-4640
▁suggest	-4641
▁tuesday	-4642
▁bachelor	-4643
▁compared	-4644
▁disaster	-4645
▁mortgage	-4646
▁national	-4647
▁proposed	-4648
▁hilarious	-4649
▁paperwork	-4650
▁scheduled	-4651
▁treatment	-4652
▁exercising	-4653
▁bittersweet	-4654
▁environment	-4655
▁certification	-4656
hab	-4657
she	-4658
▁mi	-4659
bour	-4660
ctic	-4661
load	-4662
▁cig	-4663
▁gut	-4664
▁tar	-4665
▁ult	-4666
▁yog	-4667
▁chin	-4668
▁geez	-4669
▁lets	-4670
▁nove	-4671
▁pics	-4672
▁grind	-4673
▁sight	-4674
▁simpl	-4675
▁tries	-4676
▁voice	-4677
▁vomit	-4678
▁breaks	-4679
▁crappy	-4680
▁finals	-4681
▁gained	-4682
▁onions	-4683
▁punish	-4684
▁remain	-4685
▁aggress	-4686
▁bahamas	-4687
▁chances	-4688
▁dressed	-4689
▁flooded	-4690
▁parties	-4691
▁spanish	-4692
▁awaiting	-4693
▁mechanic	-4694
▁monsters	-4695
▁november	-4696
▁reaction	-4697
▁selected	-4698
▁thousand	-4699
▁worrying	-4700
▁neighbour	-4701
▁transport	-4702
▁approaching	-4703
▁championship	-4704
5.	-4705
bu	-4706
mo	-4707
ago	-4708
val	-4709
ille	-4710
just	-4711
made	-4712
osis	-4713
pted	-4714
step	-4715
year	-4716
▁bes	-4717
▁gor	-4718
▁mat	-4719
▁woo	-4720
aming	-4721
iable	-4722
isted	-4723
urger	-4724
▁bake	-4725
▁bout	-4726
▁flip	-4727
▁inno	-4728
▁king	-4729
▁pile	-4730
▁taco	-4731
▁tent	-4732
ground	-4733
▁chest	-4734
▁limit	-4735
▁lotto	-4736
▁meals	-4737
▁nurse	-4738
▁recon	-4739
▁skunk	-4740
▁tasks	-4741
racking	-4742
▁bumped	-4743
▁donate	-4744
▁gifted	-4745
▁prices	-4746
▁sooner	-4747
▁temper	-4748
▁besides	-4749
▁choices	-4750
▁hunting	-4751
▁popular	-4752
▁request	-4753
▁shaking	-4754
▁theater	-4755
▁american	-4756
▁invested	-4757
▁midnight	-4758
▁accidents	-4759
▁nostalgia	-4760
▁professor	-4761
▁struggled	-4762
▁activities	-4763
▁determined	-4764
▁disneyland	-4765
▁instructor	-4766
▁supporting	-4767
▁relationships	-4768
▁rollercoasters	-4769
fi	-4770
fo	-4771
aky	-4772
alu	-4773
urb	-4774
was	-4775
▁2.	-4776
▁fb	-4777
bles	-4778
osit	-4779
▁dig	-4780
▁ooo	-4781
▁rul	-4782
icked	-4783
ipper	-4784
▁1000	-4785
▁harm	-4786
▁lack	-4787
▁lent	-4788
▁susp	-4789
▁temp	-4790
▁thru	-4791
▁wars	-4792
▁witn	-4793
isions	-4794
▁baker	-4795
▁bench	-4796
▁chain	-4797
▁evalu	-4798
▁hyped	-4799
▁pitch	-4800
▁rehab	-4801
▁sushi	-4802
▁treas	-4803
ization	-4804
venient	-4805
▁choose	-4806
▁cockro	-4807
▁fixing	-4808
ropriate	-4809
▁counter	-4810
▁craving	-4811
▁deposit	-4812
▁recital	-4813
▁stuffed	-4814
▁festival	-4815
▁location	-4816
▁patience	-4817
▁required	-4818
▁decisions	-4819
▁finishing	-4820
▁witnessed	-4821
▁aggressive	-4822
▁celebrated	-4823
▁depression	-4824
▁nightmares	-4825
▁television	-4826
▁supermarket	-4827
▁anticipation	-4828
▁0	-4829
200	-4830
uri	-4831
▁ec	-4832
adow	-4833
anch	-4834
cony	-4835
ogra	-4836
▁ess	-4837
▁pic	-4838
▁san	-4839
▁sea	-4840
▁ver	-4841
▁yan	-4842
uable	-4843
▁aced	-4844
▁boun	-4845
▁clot	-4846
▁wasp	-4847
ashing	-4848
ograph	-4849
▁based	-4850
▁chase	-4851
▁magic	-4852
▁model	-4853
▁names	-4854
▁rolls	-4855
▁tears	-4856
▁unbel	-4857
▁vegan	-4858
mission	-4859
▁commit	-4860
▁ghosts	-4861
▁impact	-4862
▁payday	-4863
▁regard	-4864
▁spoken	-4865
▁theres	-4866
▁waking	-4867
▁balcony	-4868
▁charity	-4869
▁delayed	-4870
▁newborn	-4871
▁reached	-4872
▁simpler	-4873
▁sketchy	-4874
▁worries	-4875
▁arrested	-4876
▁dumpster	-4877
▁gambling	-4878
▁stepping	-4879
▁valuable	-4880
▁returning	-4881
▁shattered	-4882
▁frequently	-4883
▁homeschool	-4884
ns	-4885
ok	-4886
gle	-4887
lbs	-4888
sle	-4889
▁45	-4890
▁dm	-4891
▁ip	-4892
ther	-4893
▁ank	-4894
▁fav	-4895
▁mur	-4896
▁nie	-4897
▁sym	-4898
lando	-4899
uggle	-4900
watch	-4901
▁auto	-4902
▁fake	-4903
▁fulf	-4904
▁hike	-4905
▁panc	-4906
▁swer	-4907
▁whom	-4908
ipping	-4909
mentia	-4910
▁alley	-4911
▁argue	-4912
▁kitty	-4913
▁lines	-4914
▁lower	-4915
▁mixed	-4916
▁rules	-4917
▁trees	-4918
ception	-4919
▁adults	-4920
▁cookie	-4921
▁greate	-4922
▁korean	-4923
▁mainly	-4924
▁nieces	-4925
▁pieces	-4926
▁reserv	-4927
▁toward	-4928
▁turkey	-4929
▁happend	-4930
▁letters	-4931
▁messing	-4932
▁orlando	-4933
▁slammed	-4934
▁survive	-4935
▁confused	-4936
▁dementia	-4937
▁expenses	-4938
▁homemade	-4939
▁survived	-4940
▁completed	-4941
▁tradition	-4942
▁experiences	-4943
thy	-4944
▁ug	-4945
angu	-4946
gred	-4947
hold	-4948
ilot	-4949
itis	-4950
uses	-4951
▁aid	-4952
▁ast	-4953
▁clo	-4954
▁fol	-4955
▁gpa	-4956
▁lap	-4957
apped	-4958
house	-4959
oting	-4960
style	-4961
▁arms	-4962
▁chic	-4963
▁firm	-4964
▁hood	-4965
▁hung	-4966
▁male	-4967
▁skip	-4968
▁upgr	-4969
▁yoga	-4970
uments	-4971
▁canad	-4972
▁coach	-4973
▁enter	-4974
▁forth	-4975
▁hahah	-4976
▁langu	-4977
▁notes	-4978
▁youth	-4979
▁baking	-4980
▁ingred	-4981
▁jacket	-4982
▁retail	-4983
▁rotten	-4984
▁throat	-4985
▁actions	-4986
▁quarter	-4987
▁routine	-4988
▁tuition	-4989
▁version	-4990
▁attached	-4991
▁greatest	-4992
▁hesitant	-4993
▁horribly	-4994
▁innocent	-4995
▁military	-4996
▁rejected	-4997
▁softball	-4998
▁continues	-4999
▁generally	-5000
▁mentioned	-5001
▁political	-5002
▁distracted	-5003
▁government	-5004
▁personally	-5005
▁protective	-5006
▁technology	-5007
▁complicated	-5008
ik	-5009
ole	-5010
ris	-5011
cist	-5012
play	-5013
raft	-5014
sion	-5015
▁dmv	-5016
▁nor	-5017
ashed	-5018
ledge	-5019
ugged	-5020
ville	-5021
▁ecst	-5022
▁febr	-5023
▁grab	-5024
▁irma	-5025
▁july	-5026
▁outf	-5027
▁pant	-5028
▁runs	-5029
▁unit	-5030
illing	-5031
luding	-5032
phones	-5033
▁cabin	-5034
▁guilt	-5035
▁hoped	-5036
▁idiot	-5037
▁influ	-5038
▁insec	-5039
▁parks	-5040
▁squir	-5041
ibility	-5042
ossible	-5043
respons	-5044
▁action	-5045
▁bakery	-5046
▁chores	-5047
▁discus	-5048
▁plants	-5049
▁tastes	-5050
▁cracked	-5051
▁depends	-5052
▁highest	-5053
▁kidding	-5054
▁outcome	-5055
▁reality	-5056
▁wrecked	-5057
▁discount	-5058
▁ecstatic	-5059
▁february	-5060
▁freaking	-5061
▁goldfish	-5062
▁handling	-5063
▁mentally	-5064
▁repeated	-5065
▁signific	-5066
▁unbeliev	-5067
▁addiction	-5068
▁colleague	-5069
▁companies	-5070
▁contacted	-5071
▁customers	-5072
▁encourage	-5073
▁impossible	-5074
▁understood	-5075
▁aggravating	-5076
▁celebrating	-5077
ii	-5078
vy	-5079
ium	-5080
rel	-5081
down	-5082
mony	-5083
onda	-5084
▁ahh	-5085
▁deb	-5086
▁dip	-5087
▁ger	-5088
▁hea	-5089
▁hug	-5090
▁kay	-5091
▁mma	-5092
▁suv	-5093
acing	-5094
iding	-5095
▁belt	-5096
▁diab	-5097
▁ease	-5098
▁ferr	-5099
▁hamb	-5100
▁incl	-5101
▁pill	-5102
▁rice	-5103
▁tool	-5104
▁appet	-5105
▁attem	-5106
▁bound	-5107
▁deals	-5108
▁separ	-5109
▁straw	-5110
▁tells	-5111
▁adjust	-5112
▁hassle	-5113
▁highly	-5114
▁ladies	-5115
▁placed	-5116
▁rarely	-5117
▁express	-5118
▁hospice	-5119
▁release	-5120
▁setting	-5121
▁headache	-5122
▁payments	-5123
▁irrespons	-5124
▁regularly	-5125
▁dealership	-5126
▁motivation	-5127
▁alternative	-5128
▁competitive	-5129
▁considerate	-5130
▁ingredients	-5131
▁personality	-5132
▁grandfathers	-5133
▁thunderstorm	-5134
!?	-5135
sc	-5136
ern	-5137
rot	-5138
cies	-5139
iens	-5140
ware	-5141
▁owe	-5142
▁paj	-5143
▁teh	-5144
▁umb	-5145
afood	-5146
attoo	-5147
dered	-5148
▁acts	-5149
▁cage	-5150
▁gear	-5151
▁hits	-5152
▁info	-5153
▁keto	-5154
▁kidd	-5155
▁lawy	-5156
▁oops	-5157
▁stre	-5158
▁stub	-5159
▁uber	-5160
▁viol	-5161
▁marks	-5162
▁overd	-5163
▁patch	-5164
▁sauce	-5165
▁serve	-5166
▁slack	-5167
▁teams	-5168
▁thick	-5169
▁twins	-5170
reaking	-5171
▁aliens	-5172
▁beside	-5173
▁earned	-5174
▁flavor	-5175
▁french	-5176
▁handed	-5177
▁heaven	-5178
▁papers	-5179
▁rabbit	-5180
▁settle	-5181
▁tattoo	-5182
▁unique	-5183
▁beating	-5184
▁biology	-5185
▁chicago	-5186
▁chinese	-5187
▁example	-5188
▁hamster	-5189
▁seafood	-5190
▁spoiled	-5191
▁careless	-5192
▁deadline	-5193
▁document	-5194
▁patients	-5195
▁startled	-5196
▁inspiring	-5197
▁reconnect	-5198
▁volunteer	-5199
▁babysitter	-5200
▁belongings	-5201
▁impression	-5202
rr	-5203
???	-5204
ale	-5205
gar	-5206
▁--	-5207
▁3.	-5208
▁34	-5209
▁yo	-5210
itor	-5211
roll	-5212
▁ais	-5213
▁exh	-5214
▁gum	-5215
▁nfl	-5216
heart	-5217
ought	-5218
▁apri	-5219
▁circ	-5220
▁duck	-5221
▁gain	-5222
▁mont	-5223
▁rate	-5224
▁semi	-5225
▁sens	-5226
▁spar	-5227
▁uses	-5228
▁burst	-5229
▁eager	-5230
▁honda	-5231
▁ideas	-5232
▁north	-5233
▁squid	-5234
▁stays	-5235
▁uncer	-5236
▁wings	-5237
▁yanke	-5238
▁branch	-5239
▁detail	-5240
▁excite	-5241
▁goodby	-5242
▁ignore	-5243
▁loudly	-5244
▁safety	-5245
▁spirit	-5246
▁states	-5247
▁becomes	-5248
▁cheaper	-5249
▁climate	-5250
▁england	-5251
▁glasses	-5252
▁leading	-5253
▁passion	-5254
▁reflect	-5255
▁sharing	-5256
▁swallow	-5257
▁totaled	-5258
▁touched	-5259
▁adoption	-5260
▁reliable	-5261
▁standard	-5262
▁necessary	-5263
▁overnight	-5264
▁uncertain	-5265
▁beforehand	-5266
▁complained	-5267
▁generation	-5268
▁medication	-5269
▁embarassing	-5270
▁understands	-5271
ba	-5272
fun	-5273
ott	-5274
pes	-5275
rom	-5276
char	-5277
▁clu	-5278
▁fee	-5279
▁hah	-5280
▁pup	-5281
▁rum	-5282
▁wip	-5283
adill	-5284
haust	-5285
order	-5286
▁buck	-5287
▁clou	-5288
▁dess	-5289
▁ford	-5290
▁init	-5291
▁ipad	-5292
▁kitt	-5293
▁meds	-5294
▁moon	-5295
▁pred	-5296
▁repa	-5297
perate	-5298
▁cakes	-5299
▁finds	-5300
▁gorge	-5301
▁hubby	-5302
▁repay	-5303
▁spoil	-5304
▁tasty	-5305
▁brakes	-5306
▁devest	-5307
▁diabet	-5308
▁discip	-5309
▁hectic	-5310
▁hiding	-5311
▁iphone	-5312
▁refuse	-5313
▁repeat	-5314
▁served	-5315
▁shadow	-5316
▁sharks	-5317
▁stroke	-5318
▁thrift	-5319
▁tragic	-5320
function	-5321
▁crowded	-5322
▁cutting	-5323
▁dessert	-5324
▁dislike	-5325
▁exhaust	-5326
▁ferrari	-5327
▁repairs	-5328
▁brownies	-5329
▁clothing	-5330
▁directly	-5331
▁kayaking	-5332
▁listened	-5333
▁potatoes	-5334
▁starving	-5335
▁challenge	-5336
▁eachother	-5337
▁installed	-5338
▁lightning	-5339
▁reception	-5340
▁recovered	-5341
▁reminisce	-5342
▁approached	-5343
▁boyfriends	-5344
▁dedication	-5345
▁devestated	-5346
▁directions	-5347
▁horrifying	-5348
ams	-5349
edy	-5350
hor	-5351
pot	-5352
▁ps	-5353
cast	-5354
cons	-5355
lers	-5356
oons	-5357
sole	-5358
tled	-5359
▁civ	-5360
▁fac	-5361
▁foc	-5362
▁jet	-5363
▁led	-5364
▁los	-5365
▁pal	-5366
igent	-5367
raged	-5368
spect	-5369
stand	-5370
umber	-5371
using	-5372
verse	-5373
▁darn	-5374
▁hype	-5375
▁muse	-5376
▁russ	-5377
▁shri	-5378
▁wave	-5379
▁whil	-5380
icycle	-5381
irting	-5382
▁disag	-5383
▁fruit	-5384
▁gunsh	-5385
▁intim	-5386
▁james	-5387
▁messy	-5388
▁pasta	-5389
▁resch	-5390
▁roach	-5391
▁slide	-5392
▁theme	-5393
▁tires	-5394
▁admire	-5395
▁bosses	-5396
▁option	-5397
▁prison	-5398
▁subway	-5399
▁target	-5400
cription	-5401
wracking	-5402
▁capable	-5403
▁console	-5404
▁evicted	-5405
▁focused	-5406
▁individ	-5407
▁retired	-5408
▁reviews	-5409
▁serving	-5410
▁smashed	-5411
▁storage	-5412
▁topping	-5413
▁trailer	-5414
▁appetite	-5415
▁happiest	-5416
▁rewarded	-5417
▁slightly	-5418
▁yearbook	-5419
▁countries	-5420
▁including	-5421
▁instantly	-5422
▁presented	-5423
▁pretended	-5424
▁classmates	-5425
▁complaining	-5426
▁frightening	-5427
ih	-5428
ask	-5429
iff	-5430
ios	-5431
lif	-5432
tte	-5433
you	-5434
etti	-5435
lley	-5436
ophy	-5437
town	-5438
▁tit	-5439
▁tun	-5440
▁unl	-5441
▁upd	-5442
▁van	-5443
bucks	-5444
ustry	-5445
▁budd	-5446
▁disp	-5447
▁eats	-5448
▁glut	-5449
▁hers	-5450
▁pors	-5451
▁shar	-5452
▁snap	-5453
ending	-5454
igious	-5455
▁anger	-5456
▁bands	-5457
▁craig	-5458
▁dried	-5459
▁flirt	-5460
▁folks	-5461
▁freez	-5462
▁instr	-5463
▁lease	-5464
▁panic	-5465
▁spagh	-5466
▁stain	-5467
▁stood	-5468
aration	-5469
connect	-5470
ruction	-5471
section	-5472
unities	-5473
▁assist	-5474
▁betray	-5475
▁bottom	-5476
▁busted	-5477
▁cigare	-5478
▁disapp	-5479
▁econom	-5480
▁humans	-5481
▁lawyer	-5482
▁owners	-5483
▁racing	-5484
▁repres	-5485
▁sadden	-5486
▁spread	-5487
▁zipper	-5488
▁abusive	-5489
▁blanket	-5490
▁fiancee	-5491
▁lunches	-5492
▁mailbox	-5493
▁pumpkin	-5494
▁pushing	-5495
▁shortly	-5496
▁streets	-5497
▁teenage	-5498
▁website	-5499
▁backpack	-5500
▁generous	-5501
▁gorgeous	-5502
▁industry	-5503
▁informed	-5504
▁maintain	-5505
▁pancreat	-5506
▁software	-5507
▁stubborn	-5508
▁surround	-5509
▁sweetest	-5510
▁toddlers	-5511
▁starbucks	-5512
▁switching	-5513
▁disconnect	-5514
▁excitement	-5515
▁productive	-5516
▁malfunction	-5517
▁preparation	-5518
▁restaurants	-5519
▁irresponsible	-5520
▁opportunities	-5521
▁transportation	-5522
ov	-5523
ups	-5524
▁23	-5525
▁35	-5526
▁5.	-5527
▁cd	-5528
▁eh	-5529
▁hr	-5530
▁uk	-5531
▁ur	-5532
?!?!	-5533
ears	-5534
edom	-5535
▁300	-5536
▁mug	-5537
▁sta	-5538
▁wis	-5539
enced	-5540
ented	-5541
etime	-5542
rency	-5543
▁bars	-5544
▁bush	-5545
▁navy	-5546
▁picn	-5547
▁remo	-5548
▁tear	-5549
▁weak	-5550
action	-5551
▁boost	-5552
▁dough	-5553
▁jerks	-5554
▁lemon	-5555
▁minor	-5556
▁momma	-5557
▁naked	-5558
▁occur	-5559
▁steam	-5560
▁sunny	-5561
▁umbre	-5562
▁wheel	-5563
ability	-5564
▁belief	-5565
▁cities	-5566
▁crimin	-5567
▁cutest	-5568
▁disres	-5569
▁elated	-5570
▁golden	-5571
▁muscle	-5572
▁mutual	-5573
▁parrot	-5574
▁salary	-5575
▁shared	-5576
▁surely	-5577
▁accused	-5578
▁ceiling	-5579
▁channel	-5580
▁consist	-5581
▁corrupt	-5582
▁disturb	-5583
▁extreme	-5584
▁freedom	-5585
▁handful	-5586
▁joining	-5587
▁kicking	-5588
▁musical	-5589
▁options	-5590
▁seconds	-5591
▁sundays	-5592
▁ceremony	-5593
▁channels	-5594
▁dreading	-5595
▁romantic	-5596
▁secretly	-5597
▁shoulder	-5598
▁suprised	-5599
▁troubles	-5600
▁upstairs	-5601
▁adventure	-5602
▁extension	-5603
▁intention	-5604
▁strangers	-5605
▁workplace	-5606
▁appartment	-5607
▁assignment	-5608
▁forgetting	-5609
▁headphones	-5610
▁photograph	-5611
▁independent	-5612
▁participate	-5613
▁possibility	-5614
▁significant	-5615
▁interviewing	-5616
,,	-5617
hn	-5618
cip	-5619
hhh	-5620
oom	-5621
▁cy	-5622
ddle	-5623
ique	-5624
ping	-5625
umes	-5626
well	-5627
zard	-5628
▁obs	-5629
ables	-5630
ading	-5631
aging	-5632
crast	-5633
ictor	-5634
oured	-5635
works	-5636
▁asap	-5637
▁cast	-5638
▁copy	-5639
▁fees	-5640
▁melt	-5641
▁nine	-5642
▁pity	-5643
▁puts	-5644
▁solo	-5645
▁tips	-5646
▁cruel	-5647
▁exist	-5648
▁incom	-5649
▁incon	-5650
▁loads	-5651
▁lover	-5652
▁sharp	-5653
▁snack	-5654
▁solve	-5655
▁ultim	-5656
▁burrit	-5657
▁comics	-5658
▁stable	-5659
▁sticky	-5660
▁threat	-5661
▁anyways	-5662
▁buddies	-5663
▁effects	-5664
▁goodbye	-5665
▁healing	-5666
▁pointed	-5667
▁porsche	-5668
▁selfish	-5669
▁testing	-5670
▁yankees	-5671
▁contract	-5672
▁dressing	-5673
▁language	-5674
▁procrast	-5675
▁proposal	-5676
▁repaired	-5677
▁sweating	-5678
▁afterward	-5679
▁dedicated	-5680
▁fireworks	-5681
▁horrified	-5682
▁realizing	-5683
▁represent	-5684
▁searching	-5685
▁spaghetti	-5686
▁universal	-5687
▁embarrased	-5688
▁evaluation	-5689
▁passionate	-5690
▁girlfriends	-5691
▁overwhelmed	-5692
▁instructions	-5693
▁organization	-5694
▁specifically	-5695
▁unbelievable	-5696
▁heartbreaking	-5697
"!	-5698
bra	-5699
can	-5700
hen	-5701
olf	-5702
sey	-5703
zed	-5704
▁ut	-5705
aker	-5706
corn	-5707
lymp	-5708
▁coy	-5709
▁jan	-5710
▁mri	-5711
▁mud	-5712
▁ooh	-5713
▁unw	-5714
alian	-5715
allas	-5716
mower	-5717
slist	-5718
▁asks	-5719
▁comb	-5720
▁deck	-5721
▁east	-5722
▁elev	-5723
▁gall	-5724
▁quiz	-5725
▁sour	-5726
▁tuck	-5727
▁ugly	-5728
erence	-5729
unting	-5730
▁aisle	-5731
▁ankle	-5732
▁awwww	-5733
▁basis	-5734
▁brush	-5735
▁dated	-5736
▁greet	-5737
▁handy	-5738
▁olymp	-5739
▁quilt	-5740
▁youre	-5741
▁beaten	-5742
▁canada	-5743
▁chains	-5744
▁dallas	-5745
▁entert	-5746
▁google	-5747
▁groups	-5748
▁infuri	-5749
▁injury	-5750
▁museum	-5751
▁passes	-5752
▁shifts	-5753
▁skiing	-5754
▁sweaty	-5755
▁texted	-5756
▁whilst	-5757
▁address	-5758
▁cleaner	-5759
▁comment	-5760
▁decades	-5761
▁distant	-5762
▁drawing	-5763
▁failure	-5764
▁ghosted	-5765
▁popcorn	-5766
▁raising	-5767
▁recipes	-5768
▁roomate	-5769
▁uniform	-5770
▁achieved	-5771
▁assuming	-5772
▁bothered	-5773
▁disagree	-5774
▁insecure	-5775
▁keyboard	-5776
▁outdoors	-5777
▁classroom	-5778
▁improving	-5779
▁lawnmower	-5780
▁marketing	-5781
▁recognize	-5782
▁teenagers	-5783
▁acceptance	-5784
▁craigslist	-5785
▁disrespect	-5786
▁introduced	-5787
▁nightlight	-5788
▁replacement	-5789
▁surprisingly	-5790
aa	-5791
oh	-5792
gun	-5793
ils	-5794
uct	-5795
aped	-5796
ibes	-5797
inct	-5798
ints	-5799
term	-5800
▁cos	-5801
▁max	-5802
▁meg	-5803
▁nic	-5804
▁vit	-5805
anced	-5806
bbing	-5807
berry	-5808
mbled	-5809
state	-5810
world	-5811
▁buzz	-5812
▁fans	-5813
▁feat	-5814
▁goss	-5815
▁lean	-5816
▁lung	-5817
▁oper	-5818
▁robb	-5819
▁site	-5820
▁slip	-5821
▁spin	-5822
▁thie	-5823
▁thor	-5824
▁unus	-5825
▁awake	-5826
▁guide	-5827
▁holds	-5828
▁humid	-5829
▁italy	-5830
▁jumps	-5831
▁phase	-5832
▁rural	-5833
▁slice	-5834
▁stops	-5835
▁vibes	-5836
▁walls	-5837
▁behold	-5838
▁causes	-5839
▁donald	-5840
▁escape	-5841
▁essent	-5842
▁healed	-5843
▁island	-5844
▁makeup	-5845
▁olives	-5846
▁points	-5847
▁recall	-5848
▁behaved	-5849
▁blowing	-5850
▁episode	-5851
▁jogging	-5852
▁smaller	-5853
▁stocked	-5854
▁whoever	-5855
▁betrayed	-5856
▁convince	-5857
▁declined	-5858
▁discover	-5859
▁downtown	-5860
▁eggplant	-5861
▁evidence	-5862
▁flirting	-5863
▁montreal	-5864
▁musician	-5865
▁original	-5866
▁resident	-5867
▁umbrella	-5868
▁candidate	-5869
▁convinced	-5870
▁potential	-5871
▁receiving	-5872
▁traumatic	-5873
▁apartments	-5874
▁collection	-5875
▁pleasantly	-5876
▁repeatedly	-5877
▁reschedule	-5878
▁sweetheart	-5879
▁reminiscing	-5880
▁reservations	-5881
fa	-5882
ms	-5883
300	-5884
dad	-5885
now	-5886
ota	-5887
zen	-5888
aces	-5889
foot	-5890
hole	-5891
vard	-5892
▁avo	-5893
▁dil	-5894
▁dim	-5895
▁lip	-5896
▁mum	-5897
▁owl	-5898
▁rev	-5899
▁tie	-5900
▁tut	-5901
anoid	-5902
apple	-5903
aries	-5904
arily	-5905
cedes	-5906
inton	-5907
nival	-5908
pared	-5909
riger	-5910
unken	-5911
ution	-5912
▁asia	-5913
▁bark	-5914
▁brut	-5915
▁cass	-5916
▁drew	-5917
▁exch	-5918
▁heav	-5919
▁jeep	-5920
▁lice	-5921
▁pine	-5922
▁slap	-5923
▁tank	-5924
▁whis	-5925
▁wise	-5926
▁worn	-5927
▁yall	-5928
urally	-5929
▁april	-5930
▁austr	-5931
▁costs	-5932
▁crypt	-5933
▁democ	-5934
▁lasts	-5935
▁named	-5936
▁payed	-5937
▁snuck	-5938
▁trunk	-5939
▁warri	-5940
bulence	-5941
▁affair	-5942
▁ballet	-5943
▁breast	-5944
▁camper	-5945
▁crowds	-5946
▁deeply	-5947
▁design	-5948
▁miscar	-5949
▁pizzas	-5950
▁racist	-5951
▁rented	-5952
▁shirts	-5953
▁useful	-5954
▁wished	-5955
▁assured	-5956
▁avoided	-5957
▁battery	-5958
▁begging	-5959
▁drunken	-5960
▁errands	-5961
▁flipped	-5962
▁foreign	-5963
▁fortune	-5964
▁halfway	-5965
▁jackpot	-5966
▁loyalty	-5967
▁masters	-5968
▁matches	-5969
▁miracle	-5970
▁neglect	-5971
▁playoff	-5972
▁rushing	-5973
▁screwed	-5974
▁skipped	-5975
▁spooked	-5976
▁blocking	-5977
▁carnival	-5978
▁carrying	-5979
▁chainsaw	-5980
▁dropping	-5981
▁hundreds	-5982
▁investig	-5983
▁lonesome	-5984
▁mercedes	-5985
▁paranoid	-5986
▁refriger	-5987
▁services	-5988
▁smoothly	-5989
▁toppings	-5990
▁vomiting	-5991
▁clearance	-5992
▁entertain	-5993
▁healthier	-5994
▁mosquitos	-5995
▁pineapple	-5996
▁stressing	-5997
▁typically	-5998
▁hurricanes	-5999
▁investment	-6000
▁turbulence	-6001
▁miscarriage	-6002
!.	-6003
1,	-6004
1.	-6005
25	-6006
nn	-6007
cky	-6008
cop	-6009
hus	-6010
nel	-6011
sis	-6012
▁py	-6013
anny	-6014
bean	-6015
lest	-6016
osen	-6017
rats	-6018
suit	-6019
▁bid	-6020
▁ego	-6021
▁nut	-6022
▁var	-6023
▁wat	-6024
anded	-6025
ogged	-6026
paper	-6027
ribut	-6028
▁bost	-6029
▁bree	-6030
▁enem	-6031
▁hero	-6032
▁jell	-6033
▁lect	-6034
▁nood	-6035
▁shed	-6036
▁slim	-6037
▁sore	-6038
▁trim	-6039
▁vegg	-6040
ifying	-6041
ulture	-6042
▁added	-6043
▁beans	-6044
▁draft	-6045
▁equip	-6046
▁funds	-6047
▁juice	-6048
▁korea	-6049
▁moder	-6050
▁nause	-6051
▁overs	-6052
▁prove	-6053
▁shred	-6054
▁signs	-6055
▁skate	-6056
▁soooo	-6057
▁spook	-6058
▁staff	-6059
lifting	-6060
▁accord	-6061
▁biting	-6062
▁boxing	-6063
▁cereal	-6064
▁driven	-6065
▁fallen	-6066
▁gossip	-6067
▁guests	-6068
▁humble	-6069
▁outfit	-6070
▁picnic	-6071
▁policy	-6072
▁smells	-6073
▁tempor	-6074
▁thrill	-6075
▁trauma	-6076
▁trophy	-6077
▁visits	-6078
▁washed	-6079
prepared	-6080
▁clogged	-6081
▁compare	-6082
▁courses	-6083
▁eagerly	-6084
▁fantasy	-6085
▁infront	-6086
▁inspect	-6087
▁mailman	-6088
▁needing	-6089
▁objects	-6090
▁roaches	-6091
▁rooting	-6092
▁settled	-6093
▁traumat	-6094
▁weights	-6095
▁gunshots	-6096
▁knocking	-6097
▁perspect	-6098
▁projects	-6099
▁reminder	-6100
▁resolved	-6101
▁storming	-6102
▁attending	-6103
▁blessings	-6104
▁interests	-6105
▁naturally	-6106
▁compliment	-6107
▁increasing	-6108
▁officially	-6109
▁construction	-6110
▁refrigerator	-6111
▁conversations	-6112
40	-6113
ds	-6114
acu	-6115
bed	-6116
cco	-6117
fir	-6118
lly	-6119
mes	-6120
oma	-6121
ows	-6122
▁1.	-6123
▁bb	-6124
▁ew	-6125
1000	-6126
cret	-6127
eeze	-6128
iana	-6129
iver	-6130
kids	-6131
ocur	-6132
ouri	-6133
uded	-6134
▁cpa	-6135
▁dom	-6136
▁feb	-6137
▁fry	-6138
▁hip	-6139
▁ine	-6140
▁oof	-6141
▁web	-6142
cials	-6143
pleas	-6144
stone	-6145
▁bump	-6146
▁coin	-6147
▁lame	-6148
▁mama	-6149
▁rome	-6150
▁toes	-6151
▁wins	-6152
▁xbox	-6153
istics	-6154
▁beers	-6155
▁bully	-6156
▁debts	-6157
▁elses	-6158
▁flush	-6159
▁grill	-6160
▁honey	-6161
▁inapp	-6162
▁opens	-6163
▁queen	-6164
▁racco	-6165
▁solid	-6166
▁spain	-6167
▁title	-6168
▁valed	-6169
▁annoys	-6170
▁bumper	-6171
▁costco	-6172
▁covers	-6173
▁foster	-6174
▁gluten	-6175
▁hostel	-6176
▁mowing	-6177
▁plates	-6178
▁polite	-6179
▁spooky	-6180
ictorian	-6181
▁figures	-6182
▁happily	-6183
▁harvard	-6184
▁italian	-6185
▁justice	-6186
▁massive	-6187
▁outdoor	-6188
▁periods	-6189
▁plumber	-6190
▁removed	-6191
▁stephen	-6192
▁suprise	-6193
▁surreal	-6194
▁diabetes	-6195
▁incident	-6196
▁misunder	-6197
▁mosquito	-6198
▁overchar	-6199
▁remained	-6200
▁announced	-6201
▁answering	-6202
▁batteries	-6203
▁classmate	-6204
▁counselor	-6205
▁creatures	-6206
▁cryptocur	-6207
▁gathering	-6208
▁interrupt	-6209
▁conference	-6210
▁interstate	-6211
▁presenting	-6212
▁psychology	-6213
▁celebration	-6214
▁challenging	-6215
▁communicate	-6216
▁destination	-6217
▁improvement	-6218
▁photographs	-6219
▁transferred	-6220
▁conditioning	-6221
▁successfully	-6222
▁compassionate	-6223
▁inappropriate	-6224
▁valedictorian	-6225
4.	-6226
400	-6227
ara	-6228
cha	-6229
gie	-6230
ihu	-6231
imm	-6232
met	-6233
airy	-6234
aith	-6235
ases	-6236
iant	-6237
iger	-6238
laws	-6239
odel	-6240
olve	-6241
oooo	-6242
otic	-6243
▁adn	-6244
▁doo	-6245
▁dos	-6246
▁gag	-6247
▁glo	-6248
▁lun	-6249
amond	-6250
arant	-6251
enges	-6252
gebra	-6253
inate	-6254
ories	-6255
otein	-6256
ously	-6257
utter	-6258
▁adul	-6259
▁bats	-6260
▁beef	-6261
▁cans	-6262
▁diss	-6263
▁gang	-6264
▁goin	-6265
▁jury	-6266
▁mode	-6267
▁page	-6268
▁tore	-6269
▁unne	-6270
▁zone	-6271
immune	-6272
mother	-6273
raging	-6274
washer	-6275
▁angel	-6276
▁aston	-6277
▁carbs	-6278
▁chihu	-6279
▁daddy	-6280
▁dairy	-6281
▁grump	-6282
▁harsh	-6283
▁inher	-6284
▁intru	-6285
▁metal	-6286
▁neice	-6287
▁noble	-6288
▁rains	-6289
▁rainy	-6290
▁wrest	-6291
▁yummy	-6292
aithful	-6293
▁bushes	-6294
▁clowns	-6295
▁commer	-6296
▁confir	-6297
▁dealer	-6298
▁desire	-6299
▁digest	-6300
▁docile	-6301
▁estate	-6302
▁gallon	-6303
▁intell	-6304
▁kiddos	-6305
▁pastor	-6306
▁skinny	-6307
▁smelly	-6308
▁spaces	-6309
▁status	-6310
▁struck	-6311
▁swerve	-6312
▁terrif	-6313
▁werent	-6314
▁wheels	-6315
▁algebra	-6316
▁arguing	-6317
▁backing	-6318
▁bicycle	-6319
▁bullied	-6320
▁diamond	-6321
▁dieting	-6322
▁further	-6323
▁mansion	-6324
▁painted	-6325
▁prevent	-6326
▁punched	-6327
▁rotting	-6328
▁arriving	-6329
▁coverage	-6330
▁download	-6331
▁elevator	-6332
▁feedback	-6333
▁function	-6334
▁hahahaha	-6335
▁incompet	-6336
▁instinct	-6337
▁pleasure	-6338
▁saddened	-6339
▁thorough	-6340
▁touching	-6341
▁treasure	-6342
▁warriors	-6343
▁wrecking	-6344
▁cockroach	-6345
▁democrats	-6346
▁enjoyable	-6347
▁equipment	-6348
▁hamburger	-6349
▁household	-6350
▁dishwasher	-6351
▁individual	-6352
▁meaningful	-6353
▁respectful	-6354
▁scratching	-6355
▁transplant	-6356
▁unfaithful	-6357
▁vegetables	-6358
▁devastating	-6359
▁infuriating	-6360
▁practically	-6361
▁occasionally	-6362
▁transmission	-6363
.,	-6364
2.	-6365
gee	-6366
oni	-6367
▁00	-6368
▁eb	-6369
▁ls	-6370
▁ot	-6371
aded	-6372
ateg	-6373
bble	-6374
free	-6375
iors	-6376
itsu	-6377
kill	-6378
life	-6379
lleg	-6380
nies	-6381
nuts	-6382
ruct	-6383
▁13.	-6384
▁cub	-6385
▁dat	-6386
▁lan	-6387
▁pra	-6388
▁sam	-6389
▁tag	-6390
gment	-6391
ician	-6392
olves	-6393
▁boot	-6394
▁brew	-6395
▁brid	-6396
▁cafe	-6397
▁dorm	-6398
▁geor	-6399
▁john	-6400
▁kart	-6401
▁macs	-6402
▁punk	-6403
▁salt	-6404
▁synd	-6405
▁vent	-6406
▁wide	-6407
ibbean	-6408
issing	-6409
▁degre	-6410
▁dishe	-6411
▁error	-6412
▁false	-6413
▁illeg	-6414
▁incor	-6415
▁louis	-6416
▁mommy	-6417
▁poker	-6418
▁route	-6419
▁terms	-6420
▁valid	-6421
▁wrist	-6422
▁actors	-6423
▁artist	-6424
▁bitter	-6425
▁bracel	-6426
▁brutal	-6427
▁burden	-6428
▁denied	-6429
▁factor	-6430
▁grumpy	-6431
▁joking	-6432
▁matern	-6433
▁mirror	-6434
▁shaken	-6435
▁sleeps	-6436
▁theirs	-6437
▁tomato	-6438
▁tucked	-6439
▁upside	-6440
▁volley	-6441
▁waiter	-6442
ications	-6443
standing	-6444
▁austral	-6445
▁bunnies	-6446
▁clinton	-6447
▁culture	-6448
▁delight	-6449
▁drowned	-6450
▁heavily	-6451
▁kittens	-6452
▁mainten	-6453
▁peoples	-6454
▁propose	-6455
▁protein	-6456
▁returns	-6457
▁sadness	-6458
▁session	-6459
▁trainer	-6460
▁trapped	-6461
▁charging	-6462
▁doorstep	-6463
▁entering	-6464
▁exchange	-6465
▁humanity	-6466
▁japanese	-6467
▁judgment	-6468
▁kindness	-6469
▁mornings	-6470
▁panicked	-6471
▁promises	-6472
▁reported	-6473
▁smelling	-6474
▁someones	-6475
▁swimsuit	-6476
▁caribbean	-6477
▁doughnuts	-6478
▁knowledge	-6479
▁lifestyle	-6480
▁pepperoni	-6481
▁surprises	-6482
▁candidates	-6483
▁challenges	-6484
▁discipline	-6485
▁essentials	-6486
▁fulfilling	-6487
▁inspection	-6488
▁originally	-6489
▁volleyball	-6490
▁disrespectful	-6491
5,	-6492
ua	-6493
ami	-6494
chi	-6495
dom	-6496
eve	-6497
gus	-6498
lin	-6499
oul	-6500
ral	-6501
sty	-6502
zzy	-6503
anta	-6504
bull	-6505
dogs	-6506
gile	-6507
gots	-6508
heal	-6509
rate	-6510
shed	-6511
umst	-6512
west	-6513
word	-6514
▁hul	-6515
▁igu	-6516
▁irs	-6517
▁jew	-6518
▁kim	-6519
▁nes	-6520
▁ore	-6521
▁tap	-6522
▁tum	-6523
ators	-6524
atory	-6525
child	-6526
ching	-6527
crete	-6528
ional	-6529
pting	-6530
uries	-6531
while	-6532
▁brit	-6533
▁craz	-6534
▁hunt	-6535
▁lump	-6536
▁nach	-6537
▁neut	-6538
▁pace	-6539
▁purs	-6540
▁rede	-6541
▁seek	-6542
▁shor	-6543
▁sits	-6544
▁tack	-6545
▁tied	-6546
▁weap	-6547
pelled	-6548
▁antsy	-6549
▁autom	-6550
▁chips	-6551
▁clock	-6552
▁cooks	-6553
▁craft	-6554
▁dates	-6555
▁etern	-6556
▁evacu	-6557
▁faced	-6558
▁hates	-6559
▁hyper	-6560
▁legal	-6561
▁medal	-6562
▁miami	-6563
▁rocks	-6564
▁texts	-6565
▁vitam	-6566
▁walks	-6567
▁weigh	-6568
essions	-6569
▁beauty	-6570
▁boston	-6571
▁bungee	-6572
▁drawer	-6573
▁german	-6574
▁landsc	-6575
▁lizard	-6576
▁necess	-6577
▁retake	-6578
▁shrimp	-6579
▁singer	-6580
▁spends	-6581
▁suffer	-6582
▁twenty	-6583
venience	-6584
▁blocked	-6585
▁butterf	-6586
▁carried	-6587
▁chihuah	-6588
▁compete	-6589
▁display	-6590
▁expense	-6591
▁fragile	-6592
▁grilled	-6593
▁intimid	-6594
▁longest	-6595
▁maggots	-6596
▁massage	-6597
▁midterm	-6598
▁pitbull	-6599
▁planted	-6600
▁refuses	-6601
▁slapped	-6602
▁useless	-6603
▁veggies	-6604
▁affected	-6605
▁announce	-6606
▁answered	-6607
▁belonged	-6608
▁carefree	-6609
▁chargers	-6610
▁concrete	-6611
▁divorced	-6612
▁increase	-6613
▁sticking	-6614
▁unlocked	-6615
▁wondered	-6616
▁attacking	-6617
▁computers	-6618
▁correctly	-6619
▁headaches	-6620
▁infection	-6621
▁messaging	-6622
▁performed	-6623
▁preschool	-6624
▁promising	-6625
▁realistic	-6626
▁rejection	-6627
▁suffering	-6628
▁therapist	-6629
▁collecting	-6630
▁leadership	-6631
▁satisfying	-6632
▁babysitting	-6633
▁tournaments	-6634
▁particularly	-6635
!"	-6636
,.	-6637
ooo	-6638
▁33	-6639
▁pc	-6640
adem	-6641
beat	-6642
chup	-6643
head	-6644
ista	-6645
iter	-6646
maid	-6647
sequ	-6648
ttes	-6649
▁bbq	-6650
▁dug	-6651
▁gir	-6652
▁jam	-6653
▁jar	-6654
▁nag	-6655
▁raw	-6656
agues	-6657
aware	-6658
craft	-6659
eries	-6660
field	-6661
inary	-6662
ivity	-6663
morse	-6664
ugget	-6665
water	-6666
▁ahhh	-6667
▁airl	-6668
▁beta	-6669
▁boom	-6670
▁caut	-6671
▁dust	-6672
▁mini	-6673
▁mush	-6674
▁perf	-6675
▁rink	-6676
▁rose	-6677
▁sake	-6678
▁soph	-6679
▁tuna	-6680
▁ward	-6681
apping	-6682
arming	-6683
encies	-6684
igning	-6685
lliant	-6686
▁alert	-6687
▁aware	-6688
▁chees	-6689
▁chess	-6690
▁chunk	-6691
▁crank	-6692
▁curse	-6693
▁ducks	-6694
▁entit	-6695
▁grows	-6696
▁hasnt	-6697
▁jokes	-6698
▁lined	-6699
▁nails	-6700
▁occup	-6701
▁olive	-6702
▁rates	-6703
▁sides	-6704
▁skirt	-6705
▁spell	-6706
▁tailg	-6707
▁tempt	-6708
▁towel	-6709
▁academ	-6710
▁apples	-6711
▁chewed	-6712
▁choked	-6713
▁engage	-6714
▁enjoys	-6715
▁famous	-6716
▁favour	-6717
▁inspir	-6718
▁kimchi	-6719
▁melted	-6720
▁newest	-6721
▁perman	-6722
▁poured	-6723
▁relive	-6724
▁resist	-6725
▁rolled	-6726
▁timing	-6727
▁antique	-6728
▁barista	-6729
▁burning	-6730
▁cleared	-6731
▁closest	-6732
▁consequ	-6733
▁explore	-6734
▁freezer	-6735
▁ketchup	-6736
▁pajamas	-6737
▁remodel	-6738
▁remorse	-6739
▁snuggle	-6740
▁warrant	-6741
▁checkout	-6742
▁entirely	-6743
▁extended	-6744
▁husbands	-6745
▁infected	-6746
▁reunited	-6747
▁sickness	-6748
▁australia	-6749
▁brilliant	-6750
▁companion	-6751
▁continued	-6752
▁developed	-6753
▁diagnosis	-6754
▁introduce	-6755
▁memorable	-6756
▁sensitive	-6757
▁aggravated	-6758
▁cigarettes	-6759
▁colleagues	-6760
▁contacting	-6761
▁convenient	-6762
▁counseling	-6763
▁disturbing	-6764
▁grandchild	-6765
▁performing	-6766
▁statistics	-6767
▁thoroughly	-6768
▁treatments	-6769
▁unprepared	-6770
▁disneyworld	-6771
▁overcharged	-6772
▁perspective	-6773
▁unnecessary	-6774
▁difficulties	-6775
▁inconvenient	-6776
▁cryptocurrency	-6777
ca	-6778
iu	-6779
rs	-6780
ona	-6781
ras	-6782
ura	-6783
uro	-6784
▁cs	-6785
▁mt	-6786
amel	-6787
ario	-6788
bled	-6789
dest	-6790
ends	-6791
face	-6792
imes	-6793
inst	-6794
udge	-6795
vert	-6796
▁ack	-6797
▁bru	-6798
▁dun	-6799
▁fib	-6800
▁jiu	-6801
▁joe	-6802
▁vir	-6803
▁zip	-6804
getic	-6805
inist	-6806
olina	-6807
ptoms	-6808
reece	-6809
uting	-6810
▁bent	-6811
▁cine	-6812
▁dare	-6813
▁dove	-6814
▁fash	-6815
▁fits	-6816
▁frog	-6817
▁laws	-6818
▁leap	-6819
▁mate	-6820
▁ours	-6821
▁pops	-6822
▁redo	-6823
▁toll	-6824
▁tote	-6825
▁trap	-6826
▁vice	-6827
▁woah	-6828
ansion	-6829
lights	-6830
ration	-6831
season	-6832
veland	-6833
▁actor	-6834
▁ambul	-6835
▁among	-6836
▁auton	-6837
▁boots	-6838
▁bunny	-6839
▁drain	-6840
▁drums	-6841
▁faces	-6842
▁filed	-6843
▁flown	-6844
▁heads	-6845
▁heirl	-6846
▁hellp	-6847
▁joint	-6848
▁karma	-6849
▁legos	-6850
▁moves	-6851
▁pharm	-6852
▁pilot	-6853
▁prett	-6854
▁reass	-6855
▁scene	-6856
▁stare	-6857
▁unfam	-6858
ounting	-6859
▁acknow	-6860
▁appear	-6861
▁author	-6862
▁aweful	-6863
▁behave	-6864
▁breeze	-6865
▁button	-6866
▁contra	-6867
▁coyote	-6868
▁cranky	-6869
▁decade	-6870
▁fellow	-6871
▁forced	-6872
▁greece	-6873
▁hidden	-6874
▁hugged	-6875
▁iguana	-6876
▁karate	-6877
▁latest	-6878
▁marked	-6879
▁mature	-6880
▁possum	-6881
▁remote	-6882
▁scores	-6883
▁sticks	-6884
▁tackle	-6885
mination	-6886
▁allergy	-6887
▁catfish	-6888
▁earning	-6889
▁escaped	-6890
▁fashion	-6891
▁fathers	-6892
▁fitness	-6893
▁freeway	-6894
▁jobless	-6895
▁leaking	-6896
▁organic	-6897
▁percent	-6898
▁perfume	-6899
▁proceed	-6900
▁regrets	-6901
▁talents	-6902
▁wasting	-6903
umstances	-6904
▁activity	-6905
▁addicted	-6906
▁carolina	-6907
▁chickens	-6908
▁creative	-6909
▁critters	-6910
▁motivate	-6911
▁partying	-6912
▁politics	-6913
▁provider	-6914
▁roadkill	-6915
▁scenario	-6916
▁shameful	-6917
▁shipping	-6918
▁symptoms	-6919
▁tracking	-6920
employment	-6921
▁buildings	-6922
▁chihuahua	-6923
▁cleveland	-6924
▁desperate	-6925
▁expansion	-6926
▁grandkids	-6927
▁housework	-6928
▁intuition	-6929
▁milestone	-6930
▁newspaper	-6931
▁overslept	-6932
▁poisoning	-6933
▁preseason	-6934
▁requested	-6935
▁thousands	-6936
▁accounting	-6937
▁registered	-6938
▁unfamiliar	-6939
▁humiliating	-6940
▁incompetent	-6941
▁interviewer	-6942
▁uncertainty	-6943
▁circumstances	-6944
:-	-6945
pr	-6946
afe	-6947
bur	-6948
cil	-6949
ded	-6950
eem	-6951
esh	-6952
iqu	-6953
ius	-6954
lor	-6955
zok	-6956
▁hm	-6957
▁ny	-6958
agna	-6959
ffed	-6960
iams	-6961
rang	-6962
rica	-6963
rome	-6964
▁400	-6965
▁ceo	-6966
▁der	-6967
▁ens	-6968
▁pin	-6969
▁sue	-6970
ament	-6971
build	-6972
erole	-6973
going	-6974
icals	-6975
ingly	-6976
inity	-6977
ppers	-6978
▁entr	-6979
▁fist	-6980
▁hook	-6981
▁jeez	-6982
▁lego	-6983
▁oooh	-6984
▁peel	-6985
▁pier	-6986
▁puzz	-6987
▁rats	-6988
▁rope	-6989
▁scan	-6990
▁scor	-6991
▁taxi	-6992
▁weed	-6993
▁west	-6994
▁wire	-6995
ington	-6996
opilot	-6997
▁awoke	-6998
▁cents	-6999
▁cough	-7000
▁devil	-7001
▁diner	-7002
▁enemy	-7003
▁exter	-7004
▁fraud	-7005
▁gears	-7006
▁insan	-7007
▁jello	-7008
▁knees	-7009
▁minim	-7010
▁novel	-7011
▁paris	-7012
▁robin	-7013
▁shout	-7014
▁wheat	-7015
aughter	-7016
olences	-7017
▁advise	-7018
▁banana	-7019
▁calmed	-7020
▁campus	-7021
▁chosen	-7022
▁comedy	-7023
▁cooler	-7024
▁dented	-7025
▁deploy	-7026
▁former	-7027
▁hiring	-7028
▁immune	-7029
▁juggle	-7030
▁killer	-7031
▁lasted	-7032
▁millen	-7033
▁monkey	-7034
▁orange	-7035
▁panama	-7036
▁russia	-7037
▁satisf	-7038
▁secure	-7039
▁stream	-7040
▁tested	-7041
▁thirty	-7042
▁throws	-7043
▁unsafe	-7044
▁warned	-7045
▁waters	-7046
fficient	-7047
▁assumed	-7048
▁attempt	-7049
▁banging	-7050
▁burrito	-7051
▁concent	-7052
▁coolest	-7053
▁crawled	-7054
▁created	-7055
▁degrees	-7056
▁falcons	-7057
▁greatly	-7058
▁hillary	-7059
▁install	-7060
▁kissing	-7061
▁landing	-7062
▁lasagna	-7063
▁monster	-7064
▁princip	-7065
▁remeber	-7066
▁renewed	-7067
▁require	-7068
▁ripping	-7069
▁smacked	-7070
▁stormed	-7071
▁tempted	-7072
▁attended	-7073
▁bracelet	-7074
▁cautious	-7075
▁concerts	-7076
▁constant	-7077
▁cornhole	-7078
▁costumes	-7079
▁craziest	-7080
▁economic	-7081
▁entitled	-7082
▁grandmas	-7083
▁intruder	-7084
▁leftover	-7085
▁meetings	-7086
▁messages	-7087
▁pharmacy	-7088
▁playoffs	-7089
▁recovery	-7090
▁scariest	-7091
▁sparring	-7092
▁stronger	-7093
▁syndrome	-7094
▁treating	-7095
▁williams	-7096
▁winnings	-7097
▁autopilot	-7098
▁casserole	-7099
▁christian	-7100
▁contribut	-7101
▁documents	-7102
▁exhausted	-7103
▁incorrect	-7104
▁influence	-7105
▁maternity	-7106
▁operation	-7107
▁religious	-7108
▁sleepover	-7109
▁submitted	-7110
▁regardless	-7111
▁skateboard	-7112
▁wellington	-7113
▁commercials	-7114
▁condolences	-7115
▁emergencies	-7116
▁intelligent	-7117
▁researching	-7118
▁consequences	-7119
▁grandmothers	-7120
▁congratulation	-7121
,"	-7122
bd	-7123
nb	-7124
pm	-7125
.".	-7126
20.	-7127
50,	-7128
alf	-7129
iac	-7130
lph	-7131
mel	-7132
see	-7133
cted	-7134
cube	-7135
girl	-7136
look	-7137
odes	-7138
path	-7139
robe	-7140
soci	-7141
ucky	-7142
udes	-7143
uits	-7144
umsy	-7145
▁atl	-7146
▁cbd	-7147
▁eve	-7148
▁fle	-7149
▁idk	-7150
▁lux	-7151
▁nar	-7152
▁paw	-7153
▁pho	-7154
▁pim	-7155
▁pip	-7156
▁pod	-7157
▁rav	-7158
▁ris	-7159
▁soo	-7160
▁wii	-7161
anked	-7162
arian	-7163
elity	-7164
force	-7165
icles	-7166
neath	-7167
point	-7168
ronic	-7169
stick	-7170
unker	-7171
usion	-7172
▁aged	-7173
▁ants	-7174
▁cudd	-7175
▁dedu	-7176
▁dies	-7177
▁eyed	-7178
▁gymn	-7179
▁hmmm	-7180
▁horn	-7181
▁hugs	-7182
▁lion	-7183
▁lous	-7184
▁mice	-7185
▁nick	-7186
▁obed	-7187
▁obst	-7188
▁odds	-7189
▁phew	-7190
▁phob	-7191
▁sang	-7192
▁tort	-7193
▁unac	-7194
▁verb	-7195
▁wolf	-7196
▁wooh	-7197
adillo	-7198
iances	-7199
icians	-7200
iently	-7201
itable	-7202
▁boats	-7203
▁cases	-7204
▁cliff	-7205
▁colon	-7206
▁comic	-7207
▁confl	-7208
▁disab	-7209
▁dolph	-7210
▁fears	-7211
▁fibro	-7212
▁freel	-7213
▁graph	-7214
▁image	-7215
▁locks	-7216
▁newer	-7217
▁oddly	-7218
▁patio	-7219
▁petty	-7220
▁reall	-7221
▁renov	-7222
▁retri	-7223
▁roads	-7224
▁salon	-7225
▁sixth	-7226
▁smack	-7227
▁snugg	-7228
▁sober	-7229
▁spill	-7230
▁tutor	-7231
▁worms	-7232
healthy	-7233
inating	-7234
reshing	-7235
working	-7236
▁associ	-7237
▁bubble	-7238
▁canned	-7239
▁cinema	-7240
▁clumsy	-7241
▁collap	-7242
▁discou	-7243
▁doggie	-7244
▁doomed	-7245
▁fondly	-7246
▁forest	-7247
▁fought	-7248
▁genius	-7249
▁nugget	-7250
▁nursed	-7251
▁overfl	-7252
▁pacing	-7253
▁prayed	-7254
▁puddle	-7255
▁resume	-7256
▁roomie	-7257
▁sneaky	-7258
▁source	-7259
▁steaks	-7260
▁sweets	-7261
▁tshirt	-7262
▁winner	-7263
▁wishes	-7264
▁bathing	-7265
▁british	-7266
▁bugging	-7267
▁caramel	-7268
▁cartoon	-7269
▁claimed	-7270
▁concern	-7271
▁efforts	-7272
▁enraged	-7273
▁finance	-7274
▁january	-7275
▁pickles	-7276
▁privacy	-7277
▁qualify	-7278
▁racking	-7279
▁shorter	-7280
▁sprayed	-7281
▁tearing	-7282
▁bullying	-7283
▁comments	-7284
▁criminal	-7285
▁darkness	-7286
▁daunting	-7287
▁drowning	-7288
▁entrance	-7289
▁episodes	-7290
▁flooding	-7291
▁gamecube	-7292
▁grandson	-7293
▁grounded	-7294
▁heirloom	-7295
▁ignoring	-7296
▁included	-7297
▁insisted	-7298
▁lipstick	-7299
▁mistaken	-7300
▁notified	-7301
▁offering	-7302
▁password	-7303
▁refunded	-7304
▁sickened	-7305
▁solution	-7306
▁speeches	-7307
▁squirrel	-7308
▁traveled	-7309
▁wardrobe	-7310
▁watermel	-7311
▁amazingly	-7312
▁ambulance	-7313
▁armadillo	-7314
▁snowboard	-7315
▁statement	-7316
▁unhealthy	-7317
▁appliances	-7318
▁astonished	-7319
▁autoimmune	-7320
▁connection	-7321
▁decorating	-7322
▁employment	-7323
▁recovering	-7324
▁refreshing	-7325
▁strawberry	-7326
▁transition	-7327
▁underneath	-7328
▁washington	-7329
▁butterflies	-7330
▁pancreatitis	-7331
▁unemployment	-7332
▁communication	-7333
▁thunderstorms	-7334
?"	-7335
ht	-7336
ij	-7337
bon	-7338
fes	-7339
ini	-7340
kea	-7341
ray	-7342
rex	-7343
sut	-7344
ula	-7345
ches	-7346
cles	-7347
dies	-7348
endy	-7349
gown	-7350
husi	-7351
llen	-7352
luck	-7353
owed	-7354
race	-7355
▁blu	-7356
▁cin	-7357
▁log	-7358
▁mob	-7359
▁pad	-7360
▁ped	-7361
▁scu	-7362
▁tub	-7363
▁unz	-7364
enger	-7365
icies	-7366
ombie	-7367
oored	-7368
rings	-7369
which	-7370
▁anon	-7371
▁blog	-7372
▁buys	-7373
▁ears	-7374
▁ebay	-7375
▁grey	-7376
▁ikea	-7377
▁joys	-7378
▁mild	-7379
▁radi	-7380
▁rash	-7381
▁slot	-7382
▁stal	-7383
▁vict	-7384
▁wand	-7385
▁wing	-7386
ancing	-7387
aughty	-7388
mption	-7389
uctant	-7390
weight	-7391
▁asian	-7392
▁banks	-7393
▁bikes	-7394
▁bleed	-7395
▁blink	-7396
▁brief	-7397
▁burnt	-7398
▁carts	-7399
▁civil	-7400
▁crawl	-7401
▁fever	-7402
▁frank	-7403
▁frust	-7404
▁herbs	-7405
▁hillb	-7406
▁holes	-7407
▁ident	-7408
▁jewel	-7409
▁juicy	-7410
▁moldy	-7411
▁nanny	-7412
▁overe	-7413
▁pains	-7414
▁pulls	-7415
▁pyrex	-7416
▁refer	-7417
▁reply	-7418
▁stars	-7419
▁swift	-7420
▁toast	-7421
▁twent	-7422
▁voted	-7423
▁wifes	-7424
minator	-7425
▁africa	-7426
▁brides	-7427
▁browns	-7428
▁checks	-7429
▁consol	-7430
▁coping	-7431
▁create	-7432
▁grudge	-7433
▁haters	-7434
▁horses	-7435
▁infant	-7436
▁keeper	-7437
▁ladder	-7438
▁murder	-7439
▁nicest	-7440
▁ordeal	-7441
▁overhe	-7442
▁phobia	-7443
▁playst	-7444
▁raises	-7445
▁resour	-7446
▁silver	-7447
▁sleepy	-7448
▁streak	-7449
▁submit	-7450
▁tipped	-7451
▁traged	-7452
▁trials	-7453
▁undies	-7454
▁upsets	-7455
▁videog	-7456
▁vision	-7457
▁zombie	-7458
ceptable	-7459
ourished	-7460
pleasant	-7461
▁arrival	-7462
▁burgers	-7463
▁candles	-7464
▁charges	-7465
▁clients	-7466
▁details	-7467
▁devoted	-7468
▁donated	-7469
▁enthusi	-7470
▁floored	-7471
▁freakin	-7472
▁guarant	-7473
▁gymnast	-7474
▁illegal	-7475
▁initial	-7476
▁magical	-7477
▁mustang	-7478
▁naughty	-7479
▁plastic	-7480
▁pooping	-7481
▁ruining	-7482
▁seasons	-7483
▁speaker	-7484
▁suspect	-7485
▁sympath	-7486
▁thieves	-7487
▁unusual	-7488
▁witness	-7489
▁admitted	-7490
▁advanced	-7491
▁appalled	-7492
▁blankets	-7493
▁cartoons	-7494
▁childish	-7495
▁destruct	-7496
▁earrings	-7497
▁eternity	-7498
▁figuring	-7499
▁insanely	-7500
▁interact	-7501
▁meantime	-7502
▁needless	-7503
▁policies	-7504
▁products	-7505
▁punished	-7506
▁requires	-7507
▁tomatoes	-7508
▁unzipped	-7509
▁vitamins	-7510
ifications	-7511
▁breathing	-7512
▁certified	-7513
▁chemicals	-7514
▁competing	-7515
▁gardening	-7516
▁inherited	-7517
▁louisiana	-7518
▁nightgown	-7519
▁parenting	-7520
▁regretted	-7521
▁reluctant	-7522
▁replacing	-7523
▁separated	-7524
▁shoulders	-7525
▁stability	-7526
▁anticipate	-7527
▁chocolates	-7528
▁commitment	-7529
▁discussing	-7530
▁interrupts	-7531
▁redemption	-7532
▁ultimately	-7533
▁unpleasant	-7534
▁vegetarian	-7535
▁anticipated	-7536
▁appropriate	-7537
▁imagination	-7538
▁technically	-7539
▁unacceptable	-7540
▁determination	-7541
0.	-7542
gl	-7543
of	-7544
10,	-7545
asp	-7546
ein	-7547
ept	-7548
gon	-7549
ica	-7550
mit	-7551
sse	-7552
ugs	-7553
▁2-	-7554
aire	-7555
aren	-7556
aska	-7557
cere	-7558
copa	-7559
crif	-7560
fire	-7561
icop	-7562
inos	-7563
loat	-7564
opsy	-7565
rary	-7566
rels	-7567
stic	-7568
stit	-7569
stop	-7570
tles	-7571
▁ain	-7572
▁arc	-7573
▁asp	-7574
▁coz	-7575
▁dre	-7576
▁fas	-7577
▁gap	-7578
▁jur	-7579
▁lob	-7580
▁sha	-7581
▁shr	-7582
▁ted	-7583
▁unt	-7584
agull	-7585
armed	-7586
assic	-7587
ffled	-7588
gling	-7589
iques	-7590
opath	-7591
renal	-7592
shine	-7593
steps	-7594
sting	-7595
think	-7596
▁arts	-7597
▁ashe	-7598
▁cave	-7599
▁crab	-7600
▁cram	-7601
▁cuts	-7602
▁dipl	-7603
▁fuel	-7604
▁hint	-7605
▁hose	-7606
▁liqu	-7607
▁lugg	-7608
▁maln	-7609
▁mand	-7610
▁mask	-7611
▁mule	-7612
▁nike	-7613
▁peak	-7614
▁phil	-7615
▁pole	-7616
▁puke	-7617
▁rang	-7618
▁tong	-7619
▁tony	-7620
▁vote	-7621
▁zeal	-7622
cedure	-7623
ounter	-7624
▁beats	-7625
▁bites	-7626
▁bowls	-7627
▁broad	-7628
▁civic	-7629
▁cloud	-7630
▁drawn	-7631
▁earns	-7632
▁eleph	-7633
▁grace	-7634
▁jacks	-7635
▁kicks	-7636
▁lanai	-7637
▁lifes	-7638
▁mines	-7639
▁ornam	-7640
▁prest	-7641
▁rally	-7642
▁rings	-7643
▁scout	-7644
▁seven	-7645
▁shelf	-7646
▁sneak	-7647
▁stunk	-7648
▁tends	-7649
▁tomor	-7650
▁unner	-7651
▁venom	-7652
▁vivid	-7653
▁werew	-7654
▁woken	-7655
adillac	-7656
icopter	-7657
ordered	-7658
▁allows	-7659
▁aspect	-7660
▁batman	-7661
▁biopsy	-7662
▁bucket	-7663
▁bunker	-7664
▁counts	-7665
▁crimes	-7666
▁cringe	-7667
▁cursed	-7668
▁forecl	-7669
▁growth	-7670
▁honors	-7671
▁inches	-7672
▁liking	-7673
▁nachos	-7674
▁pimple	-7675
▁poorly	-7676
▁potato	-7677
▁pricey	-7678
▁sacrif	-7679
▁signal	-7680
▁silent	-7681
▁soaked	-7682
▁strzok	-7683
▁supper	-7684
▁supply	-7685
▁triple	-7686
▁weekly	-7687
▁adrenal	-7688
▁airline	-7689
▁attacks	-7690
▁baffled	-7691
▁beaches	-7692
▁breakup	-7693
▁clutter	-7694
▁contain	-7695
▁dispute	-7696
▁dreamed	-7697
▁fearful	-7698
▁federal	-7699
▁hosting	-7700
▁luggage	-7701
▁midwest	-7702
▁noodles	-7703
▁raccoon	-7704
▁seagull	-7705
▁studios	-7706
▁tragedy	-7707
▁updated	-7708
▁warming	-7709
▁zealand	-7710
▁adulting	-7711
▁audition	-7712
▁autonomy	-7713
▁bleeding	-7714
▁cadillac	-7715
▁commands	-7716
▁concerns	-7717
▁contrary	-7718
▁creating	-7719
▁demanded	-7720
▁director	-7721
▁frequent	-7722
▁grinding	-7723
▁jurassic	-7724
▁refusing	-7725
▁shredded	-7726
▁sneaking	-7727
▁sunshine	-7728
▁warcraft	-7729
▁asheville	-7730
▁carefully	-7731
▁complaint	-7732
▁delighted	-7733
▁deserving	-7734
▁disappear	-7735
▁encounter	-7736
▁explained	-7737
▁footsteps	-7738
▁meanwhile	-7739
▁musicians	-7740
▁neglected	-7741
▁occasions	-7742
▁passenger	-7743
▁pointless	-7744
▁specially	-7745
▁supercopa	-7746
▁background	-7747
▁compassion	-7748
▁disability	-7749
▁helicopter	-7750
▁influenced	-7751
▁installing	-7752
▁instrument	-7753
▁lightening	-7754
▁permission	-7755
▁playground	-7756
▁recognized	-7757
▁relaxation	-7758
▁unfortunat	-7759
▁watermelon	-7760
▁documentary	-7761
▁electricity	-7762
▁generations	-7763
▁recognition	-7764
▁recommended	-7765
▁exterminator	-7766
▁malnourished	-7767
15	-7768
py	-7769
za	-7770
aur	-7771
ene	-7772
ffy	-7773
haw	-7774
mph	-7775
pse	-7776
uba	-7777
ubl	-7778
ulp	-7779
zil	-7780
▁2,	-7781
▁gn	-7782
▁ly	-7783
▁ms	-7784
▁um	-7785
2000	-7786
athl	-7787
grad	-7788
hael	-7789
igan	-7790
ists	-7791
izes	-7792
izon	-7793
redo	-7794
rict	-7795
yyyy	-7796
▁10.	-7797
▁ada	-7798
▁bul	-7799
▁cha	-7800
▁eer	-7801
▁gau	-7802
▁gou	-7803
▁jog	-7804
▁kfc	-7805
▁obl	-7806
▁que	-7807
▁rub	-7808
▁syn	-7809
▁tah	-7810
andem	-7811
arest	-7812
gover	-7813
grace	-7814
isher	-7815
leans	-7816
liest	-7817
namon	-7818
ocate	-7819
orted	-7820
osure	-7821
power	-7822
retch	-7823
years	-7824
▁apps	-7825
▁boil	-7826
▁brag	-7827
▁crew	-7828
▁culp	-7829
▁curb	-7830
▁cure	-7831
▁disl	-7832
▁dive	-7833
▁ener	-7834
▁ewww	-7835
▁genu	-7836
▁lamp	-7837
▁menu	-7838
▁piss	-7839
▁plot	-7840
▁sets	-7841
▁snot	-7842
▁sung	-7843
▁thai	-7844
orette	-7845
rowave	-7846
verted	-7847
▁admir	-7848
▁bacon	-7849
▁bouqu	-7850
▁boxer	-7851
▁busch	-7852
▁categ	-7853
▁china	-7854
▁clubs	-7855
▁creek	-7856
▁curve	-7857
▁cycle	-7858
▁doggy	-7859
▁dryer	-7860
▁dumps	-7861
▁ewwww	-7862
▁films	-7863
▁hadnt	-7864
▁ideal	-7865
▁impat	-7866
▁kings	-7867
▁maxim	-7868
▁mowed	-7869
▁neuro	-7870
▁picky	-7871
▁piggy	-7872
▁plain	-7873
▁recru	-7874
▁refin	-7875
▁revol	-7876
▁river	-7877
▁rooms	-7878
▁sheep	-7879
▁swell	-7880
▁teens	-7881
▁trade	-7882
▁upper	-7883
▁wendy	-7884
instein	-7885
▁anonym	-7886
▁attach	-7887
▁beings	-7888
▁brazil	-7889
▁crisis	-7890
▁critic	-7891
▁debate	-7892
▁dental	-7893
▁enroll	-7894
▁ensure	-7895
▁exited	-7896
▁frozen	-7897
▁fruits	-7898
▁gender	-7899
▁grinds	-7900
▁heater	-7901
▁insect	-7902
▁kidney	-7903
▁lifted	-7904
▁marvel	-7905
▁medium	-7906
▁mighty	-7907
▁orders	-7908
▁overre	-7909
▁owning	-7910
▁pajama	-7911
▁parach	-7912
▁pencil	-7913
▁profit	-7914
▁scient	-7915
▁shaved	-7916
▁tandem	-7917
▁tongue	-7918
▁toyota	-7919
▁unlock	-7920
▁unpack	-7921
▁weapon	-7922
▁wisdom	-7923
▁wooden	-7924
▁yellow	-7925
atically	-7926
▁atlanta	-7927
▁banking	-7928
▁benefit	-7929
▁bullets	-7930
▁cheerle	-7931
▁chronic	-7932
▁compens	-7933
▁confess	-7934
▁culprit	-7935
▁decline	-7936
▁digital	-7937
▁diploma	-7938
▁excuses	-7939
▁explode	-7940
▁gardens	-7941
▁genetic	-7942
▁georgia	-7943
▁hallway	-7944
▁handled	-7945
▁jewelry	-7946
▁locally	-7947
▁manners	-7948
▁michael	-7949
▁nearest	-7950
▁olympic	-7951
▁orleans	-7952
▁portion	-7953
▁smiling	-7954
▁	-7955
e	-7956
t	-7957
a	-7958
o	-7959
i	-7960
n	-7961
s	-7962
r	-7963
h	-7964
d	-7965
l	-7966
m	-7967
u	-7968
y	-7969
g	-7970
w	-7971
c	-7972
f	-7973
.	-7974
p	-7975
b	-7976
k	-7977
:	-7978
v	-7979
'	-7980
,	-7981
!	-7982
?	-7983
j	-7984
x	-7985
z	-7986
0	-7987
q	-7988
1	-7989
-	-7990
2	-7991
5	-7992
3	-7993
"	-7994
4	-7995
